{
  "version": "1.0",
  "truncation": null,
  "padding": null,
  "added_tokens": [
    {
      "id": 0,
      "content": "[UNK]",
      "single_word": false,
      "lstrip": false,
      "rstrip": false,
      "normalized": false,
      "special": true
    },
    {
      "id": 1,
      "content": "[CLS]",
      "single_word": false,
      "lstrip": false,
      "rstrip": false,
      "normalized": false,
      "special": true
    },
    {
      "id": 2,
      "content": "[SEP]",
      "single_word": false,
      "lstrip": false,
      "rstrip": false,
      "normalized": false,
      "special": true
    },
    {
      "id": 3,
      "content": "[PAD]",
      "single_word": false,
      "lstrip": false,
      "rstrip": false,
      "normalized": false,
      "special": true
    },
    {
      "id": 4,
      "content": "[MASK]",
      "single_word": false,
      "lstrip": false,
      "rstrip": false,
      "normalized": false,
      "special": true
    }
  ],
  "normalizer": null,
  "pre_tokenizer": {
    "type": "ByteLevel",
    "add_prefix_space": false,
    "trim_offsets": true,
    "use_regex": true
  },
  "post_processor": null,
  "decoder": null,
  "model": {
    "type": "BPE",
    "dropout": null,
    "unk_token": "[UNK]",
    "continuing_subword_prefix": null,
    "end_of_word_suffix": null,
    "fuse_unk": false,
    "byte_fallback": false,
    "ignore_merges": false,
    "vocab": {
      "[UNK]": 0,
      "[CLS]": 1,
      "[SEP]": 2,
      "[PAD]": 3,
      "[MASK]": 4,
      "!": 5,
      "\"": 6,
      "#": 7,
      "$": 8,
      "%": 9,
      "&": 10,
      "'": 11,
      "(": 12,
      ")": 13,
      "*": 14,
      "+": 15,
      ",": 16,
      "-": 17,
      ".": 18,
      "/": 19,
      "0": 20,
      "1": 21,
      "2": 22,
      "3": 23,
      "4": 24,
      "5": 25,
      "6": 26,
      "7": 27,
      "8": 28,
      "9": 29,
      ":": 30,
      ";": 31,
      "<": 32,
      "=": 33,
      ">": 34,
      "?": 35,
      "@": 36,
      "A": 37,
      "B": 38,
      "C": 39,
      "D": 40,
      "E": 41,
      "F": 42,
      "G": 43,
      "H": 44,
      "I": 45,
      "J": 46,
      "K": 47,
      "L": 48,
      "M": 49,
      "N": 50,
      "O": 51,
      "P": 52,
      "Q": 53,
      "R": 54,
      "S": 55,
      "T": 56,
      "U": 57,
      "V": 58,
      "W": 59,
      "X": 60,
      "Y": 61,
      "Z": 62,
      "[": 63,
      "\\": 64,
      "]": 65,
      "^": 66,
      "_": 67,
      "`": 68,
      "a": 69,
      "b": 70,
      "c": 71,
      "d": 72,
      "e": 73,
      "f": 74,
      "g": 75,
      "h": 76,
      "i": 77,
      "j": 78,
      "k": 79,
      "l": 80,
      "m": 81,
      "n": 82,
      "o": 83,
      "p": 84,
      "q": 85,
      "r": 86,
      "s": 87,
      "t": 88,
      "u": 89,
      "v": 90,
      "w": 91,
      "x": 92,
      "y": 93,
      "z": 94,
      "{": 95,
      "|": 96,
      "}": 97,
      "~": 98,
      "¡": 99,
      "¢": 100,
      "£": 101,
      "¤": 102,
      "¥": 103,
      "¦": 104,
      "§": 105,
      "¨": 106,
      "©": 107,
      "ª": 108,
      "«": 109,
      "¬": 110,
      "®": 111,
      "¯": 112,
      "°": 113,
      "±": 114,
      "²": 115,
      "³": 116,
      "´": 117,
      "µ": 118,
      "¶": 119,
      "·": 120,
      "¸": 121,
      "¹": 122,
      "º": 123,
      "»": 124,
      "¼": 125,
      "½": 126,
      "¾": 127,
      "¿": 128,
      "À": 129,
      "Á": 130,
      "Â": 131,
      "Ã": 132,
      "Ä": 133,
      "Å": 134,
      "Æ": 135,
      "Ç": 136,
      "È": 137,
      "É": 138,
      "Ê": 139,
      "Ë": 140,
      "Ì": 141,
      "Í": 142,
      "Î": 143,
      "Ï": 144,
      "Ð": 145,
      "Ñ": 146,
      "Ò": 147,
      "Ó": 148,
      "Ô": 149,
      "Õ": 150,
      "Ö": 151,
      "×": 152,
      "Ø": 153,
      "Ù": 154,
      "Ú": 155,
      "Û": 156,
      "Ü": 157,
      "Ý": 158,
      "Þ": 159,
      "ß": 160,
      "à": 161,
      "á": 162,
      "â": 163,
      "ã": 164,
      "ä": 165,
      "å": 166,
      "æ": 167,
      "ç": 168,
      "è": 169,
      "é": 170,
      "ê": 171,
      "ë": 172,
      "ì": 173,
      "í": 174,
      "î": 175,
      "ï": 176,
      "ð": 177,
      "ñ": 178,
      "ò": 179,
      "ó": 180,
      "ô": 181,
      "õ": 182,
      "ö": 183,
      "÷": 184,
      "ø": 185,
      "ù": 186,
      "ú": 187,
      "û": 188,
      "ü": 189,
      "ý": 190,
      "þ": 191,
      "ÿ": 192,
      "Ā": 193,
      "ā": 194,
      "Ă": 195,
      "ă": 196,
      "Ą": 197,
      "ą": 198,
      "Ć": 199,
      "ć": 200,
      "Ĉ": 201,
      "ĉ": 202,
      "Ċ": 203,
      "ċ": 204,
      "Č": 205,
      "č": 206,
      "Ď": 207,
      "ď": 208,
      "Đ": 209,
      "đ": 210,
      "Ē": 211,
      "ē": 212,
      "Ĕ": 213,
      "ĕ": 214,
      "Ė": 215,
      "ė": 216,
      "Ę": 217,
      "ę": 218,
      "Ě": 219,
      "ě": 220,
      "Ĝ": 221,
      "ĝ": 222,
      "Ğ": 223,
      "ğ": 224,
      "Ġ": 225,
      "ġ": 226,
      "Ģ": 227,
      "ģ": 228,
      "Ĥ": 229,
      "ĥ": 230,
      "Ħ": 231,
      "ħ": 232,
      "Ĩ": 233,
      "ĩ": 234,
      "Ī": 235,
      "ī": 236,
      "Ĭ": 237,
      "ĭ": 238,
      "Į": 239,
      "į": 240,
      "İ": 241,
      "ı": 242,
      "Ĳ": 243,
      "ĳ": 244,
      "Ĵ": 245,
      "ĵ": 246,
      "Ķ": 247,
      "ķ": 248,
      "ĸ": 249,
      "Ĺ": 250,
      "ĺ": 251,
      "Ļ": 252,
      "ļ": 253,
      "Ľ": 254,
      "ľ": 255,
      "Ŀ": 256,
      "ŀ": 257,
      "Ł": 258,
      "ł": 259,
      "Ń": 260,
      "he": 261,
      "Ġt": 262,
      "Ġa": 263,
      "Ġs": 264,
      "Ġw": 265,
      "nd": 266,
      "Ġthe": 267,
      "ed": 268,
      "Ġand": 269,
      "in": 270,
      "Ġto": 271,
      "Ġb": 272,
      "Ġh": 273,
      "Ġwa": 274,
      "re": 275,
      "ou": 276,
      "Ġf": 277,
      "it": 278,
      "Ġl": 279,
      "Ġc": 280,
      "Ġhe": 281,
      "er": 282,
      "Ġd": 283,
      "Ġwas": 284,
      "Ġm": 285,
      "Ġp": 286,
      "om": 287,
      "Ġo": 288,
      "ĠT": 289,
      "ing": 290,
      "ay": 291,
      "ar": 292,
      "is": 293,
      "Ġg": 294,
      "id": 295,
      "il": 296,
      "at": 297,
      "Ġsa": 298,
      "en": 299,
      "Ġn": 300,
      "Ġha": 301,
      "ĠS": 302,
      "an": 303,
      "im": 304,
      "ĠThe": 305,
      "or": 306,
      "on": 307,
      "Ġth": 308,
      "Ġit": 309,
      "ll": 310,
      "le": 311,
      "et": 312,
      "ĠH": 313,
      "Ġher": 314,
      "ir": 315,
      "ot": 316,
      "ĠShe": 317,
      "Ġin": 318,
      "ĠHe": 319,
      "ver": 320,
      "es": 321,
      "ow": 322,
      "ut": 323,
      "ck": 324,
      "Ġe": 325,
      "Ġsaid": 326,
      "Ġu": 327,
      "ld": 328,
      "Ġ\"": 329,
      "Ġy": 330,
      "oo": 331,
      "ig": 332,
      "Ġbe": 333,
      "am": 334,
      "Ġr": 335,
      "Ġst": 336,
      "Ġshe": 337,
      "ce": 338,
      "ĠThey": 339,
      "pp": 340,
      "ily": 341,
      "On": 342,
      "ith": 343,
      "ke": 344,
      "Ġwith": 345,
      "ĠI": 346,
      "ve": 347,
      "ked": 348,
      "Ġso": 349,
      "Ġof": 350,
      "ri": 351,
      "Ġon": 352,
      "Ġhis": 353,
      "Ġyou": 354,
      "ĠL": 355,
      "Ġpl": 356,
      "Ġday": 357,
      "very": 358,
      "nt": 359,
      "ad": 360,
      "Ġthat": 361,
      "Ġup": 362,
      "st": 363,
      "Ġhad": 364,
      "Ġplay": 365,
      "el": 366,
      "Ġthey": 367,
      "Ġmom": 368,
      "my": 369,
      "'s": 370,
      "Ġwe": 371,
      "Ġfor": 372,
      "ould": 373,
      "ĠLily": 374,
      "un": 375,
      "ent": 376,
      "itt": 377,
      "The": 378,
      "ĠB": 379,
      "her": 380,
      "out": 381,
      "Ġhapp": 382,
      "Ġli": 383,
      "ch": 384,
      "Ġsh": 385,
      "ly": 386,
      "Ġwant": 387,
      "ittle": 388,
      "ound": 389,
      "ime": 390,
      "Ġlittle": 391,
      "all": 392,
      "Ġtime": 393,
      "end": 394,
      "Ġvery": 395,
      "Ġthere": 396,
      "ĠĊ": 397,
      "Ġdo": 398,
      "Ġwh": 399,
      "se": 400,
      "ome": 401,
      "Ġsm": 402,
      "ht": 403,
      "Ġre": 404,
      "al": 405,
      "Ġk": 406,
      "Ġne": 407,
      "Ġbig": 408,
      "Ġas": 409,
      "ack": 410,
      "Ġhappy": 411,
      "riend": 412,
      "Ġfriend": 413,
      "Ġnot": 414,
      "Ġbut": 415,
      "Ġsaw": 416,
      "Ġan": 417,
      "ĠM": 418,
      "One": 419,
      "ra": 420,
      ".\"": 421,
      "ry": 422,
      "'t": 423,
      "ide": 424,
      "ved": 425,
      "Once": 426,
      "!\"": 427,
      "ĠIt": 428,
      "Ġis": 429,
      "Ġloo": 430,
      "ug": 431,
      "ake": 432,
      "ter": 433,
      "ec": 434,
      "Ġwere": 435,
      "ore": 436,
      "Ġlo": 437,
      "Ġbo": 438,
      "ĠTim": 439,
      "irl": 440,
      "Ġupon": 441,
      "Ġhim": 442,
      "Ġgirl": 443,
      "Ġtoo": 444,
      "ard": 445,
      "Ġwanted": 446,
      "Ġgo": 447,
      "Ġj": 448,
      "Ġout": 449,
      "Ġse": 450,
      "Ġsmil": 451,
      "fu": 452,
      "ill": 453,
      "Ġsp": 454,
      "hen": 455,
      "way": 456,
      "Ġcould": 457,
      "ind": 458,
      "ur": 459,
      "ĠJ": 460,
      "Ġat": 461,
      "Ġex": 462,
      "ain": 463,
      "Ġthem": 464,
      "ĠA": 465,
      "round": 466,
      "Ġwent": 467,
      "hed": 468,
      "art": 469,
      "ic": 470,
      "Ġdid": 471,
      "Ġnam": 472,
      "Ġtheir": 473,
      "rom": 474,
      "hing": 475,
      "lp": 476,
      "Ġare": 477,
      "ful": 478,
      "Ġcan": 479,
      "Ġhelp": 480,
      "Ġfriends": 481,
      "um": 482,
      "?\"": 483,
      "Ġall": 484,
      "Ġhave": 485,
      "ight": 486,
      "Ġkn": 487,
      "one": 488,
      "Ã¢": 489,
      "âĤ": 490,
      "âĤ¬": 491,
      "Ġsmiled": 492,
      "ood": 493,
      "Ġback": 494,
      "ark": 495,
      "Ġnamed": 496,
      "are": 497,
      "Ġcl": 498,
      "Ġasked": 499,
      "Ġfun": 500,
      "oug": 501,
      "Ġno": 502,
      "Ġloved": 503,
      "Ġle": 504,
      "elt": 505,
      "ĠBen": 506,
      "ĠOne": 507,
      "op": 508,
      "Ġaround": 509,
      "side": 510,
      "ick": 511,
      "Ġlooked": 512,
      "Ġsc": 513,
      "get": 514,
      "Ġfelt": 515,
      "Ġal": 516,
      "ame": 517,
      "ĠTimmy": 518,
      "omet": 519,
      "Ġboy": 520,
      "Ġfe": 521,
      "You": 522,
      "ure": 523,
      "Ġbir": 524,
      "ĠTom": 525,
      "Ġman": 526,
      "Ġstart": 527,
      "Ġtoy": 528,
      "Ġro": 529,
      "Ġsee": 530,
      "Ġme": 531,
      "dd": 532,
      "ice": 533,
      "Ġlike": 534,
      "Ġbr": 535,
      "Ġwould": 536,
      "as": 537,
      "Ġsomet": 538,
      "gether": 539,
      "ong": 540,
      "Ġbird": 541,
      "Ġsome": 542,
      "ree": 543,
      "ĠW": 544,
      "Ġwor": 545,
      "king": 546,
      "Ġag": 547,
      "Ġtogether": 548,
      "Ġstarted": 549,
      "ag": 550,
      "Ġsay": 551,
      "ings": 552,
      "Ġwhat": 553,
      "ited": 554,
      "ade": 555,
      "Ġfa": 556,
      "own": 557,
      ",\"": 558,
      "Ġsomething": 559,
      "ared": 560,
      "ie": 561,
      "Ġaway": 562,
      "Ġexc": 563,
      "Ġran": 564,
      "oud": 565,
      "Ġmake": 566,
      "if": 567,
      "Ġpark": 568,
      "ble": 569,
      "hat": 570,
      "Ġmade": 571,
      "pped": 572,
      "ĠBut": 573,
      "Ġcar": 574,
      "Ġfrom": 575,
      "Ġco": 576,
      "Ġot": 577,
      "Ġwhen": 578,
      "Ġsad": 579,
      "Ġnew": 580,
      "Ġla": 581,
      "pl": 582,
      "Lily": 583,
      "Ġthen": 584,
      "ell": 585,
      "Ġpr": 586,
      "Ġagain": 587,
      "us": 588,
      "Ġother": 589,
      "Ġhome": 590,
      "Ġput": 591,
      "Ġfound": 592,
      "ally": 593,
      "Ġwal": 594,
      "ought": 595,
      "Ġfl": 596,
      "est": 597,
      "Ġwho": 598,
      "Ġexcited": 599,
      "ep": 600,
      "ust": 601,
      "ĠYou": 602,
      "Ġplaying": 603,
      "Ġhug": 604,
      "qu": 605,
      "Ġget": 606,
      "Ġdec": 607,
      "ss": 608,
      "ried": 609,
      "Ġch": 610,
      "ĠE": 611,
      "ous": 612,
      "Ġgood": 613,
      "Ġsw": 614,
      "ach": 615,
      "uch": 616,
      "ook": 617,
      "ro": 618,
      "ny": 619,
      "Ġthings": 620,
      "uck": 621,
      "Ġgot": 622,
      "Ġv": 623,
      "udd": 624,
      "ave": 625,
      "Ġcame": 626,
      "Ġevery": 627,
      "ided": 628,
      "ĠD": 629,
      "Ġdecided": 630,
      "Ġone": 631,
      "Ġbl": 632,
      "Ġbec": 633,
      "Ġdog": 634,
      "Ġscared": 635,
      "Ġdown": 636,
      "Ġliked": 637,
      "Ġthan": 638,
      "ouse": 639,
      "Ġcare": 640,
      "Ġtree": 641,
      "Ġfeel": 642,
      "bb": 643,
      "Ġsays": 644,
      "Ġfind": 645,
      "ue": 646,
      "ways": 647,
      "Ġyour": 648,
      "ax": 649,
      "Ġdad": 650,
      "Ġab": 651,
      "Ġpo": 652,
      "ara": 653,
      "ist": 654,
      "Ġalways": 655,
      "ant": 656,
      "Ġta": 657,
      "ĠF": 658,
      "Ġke": 659,
      "our": 660,
      "Ġthought": 661,
      "Ġlot": 662,
      "nder": 663,
      "Ġdidn": 664,
      "Ġkne": 665,
      "Ġabout": 666,
      "Ġgra": 667,
      "ite": 668,
      "Ġold": 669,
      "Ġtook": 670,
      "Ġint": 671,
      "Ġmy": 672,
      "udden": 673,
      "Ġlook": 674,
      "eci": 675,
      "Ġlaug": 676,
      "fe": 677,
      "ned": 678,
      "Ġho": 679,
      "Ġoutside": 680,
      "ched": 681,
      "Ġmommy": 682,
      "ise": 683,
      "ĠMom": 684,
      "ess": 685,
      "ers": 686,
      "uddenly": 687,
      "ened": 688,
      "na": 689,
      "ged": 690,
      "Ġtake": 691,
      "ecial": 692,
      "Ġspecial": 693,
      "Ġtoys": 694,
      "Ġknew": 695,
      "ap": 696,
      "Ġpe": 697,
      "Ġlear": 698,
      "Ġball": 699,
      "Ġknow": 700,
      "reat": 701,
      "ret": 702,
      "Ġmore": 703,
      "fter": 704,
      "Ġany": 705,
      "ob": 706,
      "Ġwill": 707,
      "They": 708,
      "ive": 709,
      "Ġsun": 710,
      "Ġtr": 711,
      "ma": 712,
      "Ġcat": 713,
      "Ġtw": 714,
      "Ġhow": 715,
      "ĠSam": 716,
      "ven": 717,
      "nna": 718,
      "ĠMax": 719,
      "Ġshow": 720,
      "Ġinto": 721,
      "Ġmuch": 722,
      "Ġcouldn": 723,
      "Ġsk": 724,
      "Ġen": 725,
      "Ġexpl": 726,
      "Ġmo": 727,
      "au": 728,
      "ish": 729,
      "Ġtold": 730,
      "ia": 731,
      "Ġclo": 732,
      "and": 733,
      "Ġqu": 734,
      "ge": 735,
      "ank": 736,
      "Åĵ": 737,
      "Ġthis": 738,
      "Ġif": 739,
      "Ġinside": 740,
      "Ġhand": 741,
      "Ġproud": 742,
      "Ġroom": 743,
      "Ġnever": 744,
      "Ġover": 745,
      "Ġheard": 746,
      "Ġhouse": 747,
      "But": 748,
      "Ġop": 749,
      "Ġsl": 750,
      "Ġsor": 751,
      "uc": 752,
      "other": 753,
      "Ġgave": 754,
      "ion": 755,
      "Ġpick": 756,
      "ĠEvery": 757,
      "ty": 758,
      "Ġor": 759,
      "Ġstr": 760,
      "Ġplayed": 761,
      "Ġtried": 762,
      "dy": 763,
      "ace": 764,
      "Ġrun": 765,
      "ink": 766,
      "Ġwater": 767,
      "oll": 768,
      "ause": 769,
      "Ġsmall": 770,
      "Ġjust": 771,
      "ate": 772,
      "ump": 773,
      "ĠJo": 774,
      "Ġwat": 775,
      "ĠÃ¢": 776,
      "by": 777,
      "oth": 778,
      "Ġbu": 779,
      "here": 780,
      "Ġeat": 781,
      "ough": 782,
      "ĠJack": 783,
      "Ġhugged": 784,
      "Ġcom": 785,
      "Ġsorry": 786,
      "ving": 787,
      "etter": 788,
      "'m": 789,
      "Ġcall": 790,
      "Ġbecause": 791,
      "ile": 792,
      "Ġneed": 793,
      "sed": 794,
      "iz": 795,
      "sel": 796,
      "ĠSara": 797,
      "hn": 798,
      "Ġlong": 799,
      "ild": 800,
      "Mom": 801,
      "Ġoff": 802,
      "Ġbea": 803,
      "Ġpret": 804,
      "ort": 805,
      "Ġtry": 806,
      "Ġbox": 807,
      "ning": 808,
      "ars": 809,
      "Ġnice": 810,
      "Ġeach": 811,
      "Ġflow": 812,
      "Ġunt": 813,
      "Tom": 814,
      "ine": 815,
      "Yes": 816,
      "vent": 817,
      "Ġlaughed": 818,
      "Ġad": 819,
      "Ġthanked": 820,
      "Ġuntil": 821,
      "Ġmany": 822,
      "ak": 823,
      "ady": 824,
      "Ġbeaut": 825,
      "ft": 826,
      "imal": 827,
      "ĠSo": 828,
      "Ġanimal": 829,
      "Ġdon": 830,
      "em": 831,
      "Ġbest": 832,
      "It": 833,
      "oy": 834,
      "Ġbear": 835,
      "Ġim": 836,
      "Ġend": 837,
      "ĠHer": 838,
      "Th": 839,
      "Ġeven": 840,
      "Ġkind": 841,
      "pt": 842,
      "Ġbetter": 843,
      "urt": 844,
      "Ġgr": 845,
      "Ġby": 846,
      "gry": 847,
      "Ġra": 848,
      "Ġlearned": 849,
      "urp": 850,
      "Ġgard": 851,
      "Ġgarden": 852,
      "ĠWe": 853,
      "ĠC": 854,
      "self": 855,
      "Ġfi": 856,
      "Ġdre": 857,
      "Ġbeauti": 858,
      "âĤ¬â": 859,
      "Ġlots": 860,
      "Ġbeautiful": 861,
      "ull": 862,
      "ucy": 863,
      "ber": 864,
      "Ġlived": 865,
      "ĠAnna": 866,
      "He": 867,
      "ĠHis": 868,
      "iny": 869,
      "lew": 870,
      "Ġsky": 871,
      "Ġbra": 872,
      "Ġcle": 873,
      "Ġsn": 874,
      "Ġfast": 875,
      "Ġche": 876,
      "Ġway": 877,
      "Ġcareful": 878,
      "Ġtwo": 879,
      "Ġcalled": 880,
      "ane": 881,
      "ct": 882,
      "Ħ¢": 883,
      "âĤ¬âĦ¢": 884,
      "Ġcome": 885,
      "Ġboth": 886,
      "Ġjump": 887,
      "ĠAnd": 888,
      "Ġwo": 889,
      "ase": 890,
      "ĠFrom": 891,
      "Ġstill": 892,
      "ect": 893,
      "Ġgl": 894,
      "Ġte": 895,
      "Ġlove": 896,
      "Ġar": 897,
      "Ġhard": 898,
      "ves": 899,
      "Let": 900,
      "When": 901,
      "Ġfam": 902,
      "Ġloud": 903,
      "Ġcu": 904,
      "Ġrem": 905,
      "ĠMia": 906,
      "Tim": 907,
      "Ġlist": 908,
      "Ġstay": 909,
      "What": 910,
      "igh": 911,
      "ied": 912,
      "Ġdan": 913,
      "Ġlet": 914,
      "Ġfin": 915,
      "Ġcol": 916,
      "urpr": 917,
      "ĠWhen": 918,
      "Ġunder": 919,
      "Ġwalked": 920,
      "Ġsurpr": 921,
      "Ġbrave": 922,
      "ĠThen": 923,
      "Ġflew": 924,
      "Ġsafe": 925,
      "Ġits": 926,
      "Ġanimals": 927,
      "Ġsoon": 928,
      "Ġimp": 929,
      "ool": 930,
      "Ġfly": 931,
      "Ġow": 932,
      "Ġexplore": 933,
      "hes": 934,
      "Ġhurt": 935,
      "ast": 936,
      "Ġtow": 937,
      "Ġred": 938,
      "ople": 939,
      "Ġcon": 940,
      "Ġdoll": 941,
      "fore": 942,
      "Ġgoing": 943,
      "dded": 944,
      "ised": 945,
      "Ġbad": 946,
      "ummy": 947,
      "Ġkept": 948,
      "ip": 949,
      "That": 950,
      "Ġsto": 951,
      "ished": 952,
      "Ġshould": 953,
      "Ġfamily": 954,
      "So": 955,
      "led": 956,
      "Ġnow": 957,
      "Ġground": 958,
      "Ġpic": 959,
      "ĠLucy": 960,
      "ies": 961,
      "Ġstor": 962,
      "kay": 963,
      "Ġpeople": 964,
      "ĠP": 965,
      "age": 966,
      "Ġadvent": 967,
      "Ġfore": 968,
      "ock": 969,
      "Ġfeeling": 970,
      "ĠBob": 971,
      "iced": 972,
      "Ġbefore": 973,
      "Ġcry": 974,
      "Ġrepl": 975,
      "No": 976,
      "Ġwalking": 977,
      "Ġkeep": 978,
      "Ġbook": 979,
      "xt": 980,
      "Ġdoor": 981,
      "illy": 982,
      "Ġwhile": 983,
      "eet": 984,
      "be": 985,
      "Ġwind": 986,
      "thing": 987,
      "Ġshare": 988,
      "Ġdra": 989,
      "Ġshiny": 990,
      "Ġnodded": 991,
      "Ġtur": 992,
      "Ġangry": 993,
      "Ġopened": 994,
      "hy": 995,
      "Ġide": 996,
      "ary": 997,
      "ting": 998,
      "Ġpicked": 999,
      "Ġfr": 1000,
      "Ġey": 1001,
      "Ġreplied": 1002,
      "Ġpretty": 1003,
      "Ġclean": 1004,
      "Ġwar": 1005,
      "ĠSuddenly": 1006,
      "Ġnoticed": 1007,
      "Ġstopped": 1008,
      "ger": 1009,
      "Ġnoise": 1010,
      "Ġidea": 1011,
      "Ġvo": 1012,
      "joy": 1013,
      "Ġfar": 1014,
      "Ġthr": 1015,
      "bbit": 1016,
      "Ġadventure": 1017,
      "ner": 1018,
      "Ġrock": 1019,
      "ted": 1020,
      "Ġreal": 1021,
      "ture": 1022,
      "ĠG": 1023,
      "Ġgreat": 1024,
      "Ġquick": 1025,
      "les": 1026,
      "gan": 1027,
      "Ġwr": 1028,
      "Ġlooking": 1029,
      "Ġun": 1030,
      "Ġclos": 1031,
      "Ġdis": 1032,
      "ff": 1033,
      "Ġtre": 1034,
      "Ġbed": 1035,
      "Suddenly": 1036,
      "ious": 1037,
      "Thank": 1038,
      "Ġrabbit": 1039,
      "Ġsmile": 1040,
      "Ġfo": 1041,
      "Ġpain": 1042,
      "Ġnext": 1043,
      "Ġenjoy": 1044,
      "Ġwait": 1045,
      "Ġdel": 1046,
      "imb": 1047,
      "maz": 1048,
      "Ġamaz": 1049,
      "ember": 1050,
      "Ġtruck": 1051,
      "Ġcolor": 1052,
      "Ġclimb": 1053,
      "Jo": 1054,
      "olly": 1055,
      "ĠR": 1056,
      "Ġye": 1057,
      "Ġwonder": 1058,
      "Ġma": 1059,
      "Ġpicture": 1060,
      "ange": 1061,
      "ught": 1062,
      "Ġvoice": 1063,
      "Ġeyes": 1064,
      "Ġwalk": 1065,
      "able": 1066,
      "Ġquickly": 1067,
      "ĠJohn": 1068,
      "Ġapp": 1069,
      "ac": 1070,
      "Ġhands": 1071,
      "Ġbeing": 1072,
      "Ġafter": 1073,
      "Ġright": 1074,
      "Ġmor": 1075,
      "Ġever": 1076,
      "ĠDad": 1077,
      "Ġdif": 1078,
      "irst": 1079,
      "Ġremember": 1080,
      "Ġde": 1081,
      "Ġjo": 1082,
      "Ġwatch": 1083,
      "isy": 1084,
      "Ġshout": 1085,
      "Ġwork": 1086,
      "Ġgive": 1087,
      "Ġfish": 1088,
      "Ġthree": 1089,
      "oon": 1090,
      "Ġnear": 1091,
      "Ġbro": 1092,
      "Ġforest": 1093,
      "so": 1094,
      "Ġgre": 1095,
      "Ġstrong": 1096,
      "Ġfood": 1097,
      "Ġblue": 1098,
      "Ġeveryone": 1099,
      "Ġbeen": 1100,
      "bbed": 1101,
      "Ġcloser": 1102,
      "Ġtal": 1103,
      "Ġtra": 1104,
      "Ġcuri": 1105,
      "bye": 1106,
      "Ġbecame": 1107,
      "ĠSue": 1108,
      "Ġalso": 1109,
      "Ġflowers": 1110,
      "ream": 1111,
      "ĠJane": 1112,
      "Ġimport": 1113,
      "Ġmum": 1114,
      "Ġyell": 1115,
      "Ġlisten": 1116,
      "aybe": 1117,
      "Ben": 1118,
      "Her": 1119,
      "ĠSp": 1120,
      "Ġplace": 1121,
      "Ġac": 1122,
      "ered": 1123,
      "Ġrain": 1124,
      "Ġwatched": 1125,
      "ng": 1126,
      "ĠN": 1127,
      "Ġcurious": 1128,
      "Ġshowed": 1129,
      "ollow": 1130,
      "day": 1131,
      "Ġus": 1132,
      "Ġbel": 1133,
      "ized": 1134,
      "Ġuse": 1135,
      "Ġimportant": 1136,
      "Ġsound": 1137,
      "Ġsure": 1138,
      "Ġsqu": 1139,
      "Ġhead": 1140,
      "Ġthink": 1141,
      "Ġbright": 1142,
      "Ġmag": 1143,
      "Ġwhere": 1144,
      "Ġface": 1145,
      "Ġokay": 1146,
      "aught": 1147,
      "She": 1148,
      "Ġgoodbye": 1149,
      "kes": 1150,
      "Ġchild": 1151,
      "fere": 1152,
      "ired": 1153,
      "Ġbus": 1154,
      "Ġfollow": 1155,
      "Ġhigh": 1156,
      "Ġcont": 1157,
      "Ġdiffere": 1158,
      "aisy": 1159,
      "Ġhere": 1160,
      "Ġper": 1161,
      "lease": 1162,
      "Ġstick": 1163,
      "Ġslide": 1164,
      "Look": 1165,
      "Ġfirst": 1166,
      "ila": 1167,
      "Ġhas": 1168,
      "Ġboat": 1169,
      "Sara": 1170,
      "Can": 1171,
      "lly": 1172,
      "ĠMommy": 1173,
      "Ġbit": 1174,
      "Ġwarm": 1175,
      "itc": 1176,
      "ĠAs": 1177,
      "Ġstore": 1178,
      "Ġcr": 1179,
      "uff": 1180,
      "leep": 1181,
      "Ġworld": 1182,
      "Ġhop": 1183,
      "Ġdress": 1184,
      "Ġgame": 1185,
      "Ġnight": 1186,
      "Ġbegan": 1187,
      "Ġdifferent": 1188,
      "We": 1189,
      "more": 1190,
      "Ġanymore": 1191,
      "Ġbutter": 1192,
      "Ġmean": 1193,
      "Ġbeh": 1194,
      "ached": 1195,
      "Ġask": 1196,
      "Ġopen": 1197,
      "Ġz": 1198,
      "Ġjumped": 1199,
      "ĠSpot": 1200,
      "Ġstory": 1201,
      "John": 1202,
      "nts": 1203,
      "Ġflower": 1204,
      "zy": 1205,
      "co": 1206,
      "Ġgrabbed": 1207,
      "Ġforg": 1208,
      "Ġfire": 1209,
      "Ġam": 1210,
      "Ġthrough": 1211,
      "imes": 1212,
      "Ġrest": 1213,
      "Ġsweet": 1214,
      "Ġtell": 1215,
      "Ġhappened": 1216,
      "Ġreally": 1217,
      "Ġhopped": 1218,
      "ndma": 1219,
      "Ġhelped": 1220,
      "Ġlady": 1221,
      "Ġcou": 1222,
      "ster": 1223,
      "Ġfav": 1224,
      "Ġpare": 1225,
      "Ġname": 1226,
      "After": 1227,
      "Ġru": 1228,
      "Ġpat": 1229,
      "Ġour": 1230,
      "Ġsand": 1231,
      "Ġshouted": 1232,
      "unny": 1233,
      "Ġlea": 1234,
      "Ġblock": 1235,
      "Ġfell": 1236,
      "Ġpu": 1237,
      "Ġglad": 1238,
      "Ġdraw": 1239,
      "Ġhaving": 1240,
      "Ġseen": 1241,
      "Ġtired": 1242,
      "Ġpull": 1243,
      "ĠTh": 1244,
      "Ġonly": 1245,
      "ĠLet": 1246,
      "ĠJoe": 1247,
      "Ġmouse": 1248,
      "As": 1249,
      "Ġmon": 1250,
      "Ġkitc": 1251,
      "Ġgrass": 1252,
      "Ġkitchen": 1253,
      "Ġflo": 1254,
      "Ġmagic": 1255,
      "Ġwhy": 1256,
      "ĠDaisy": 1257,
      "fully": 1258,
      "ĠSarah": 1259,
      "Mommy": 1260,
      "Ġfill": 1261,
      "Ġsoft": 1262,
      "Ġyears": 1263,
      "Ġready": 1264,
      "Ġworry": 1265,
      "Ġfro": 1266,
      "Ġreached": 1267,
      "'re": 1268,
      "Ġthing": 1269,
      "ient": 1270,
      "ater": 1271,
      "Ġbrother": 1272,
      "Ġtast": 1273,
      "Ġdone": 1274,
      "th": 1275,
      "Ġwaved": 1276,
      "\".": 1277,
      "Ġdin": 1278,
      "ued": 1279,
      "ass": 1280,
      "ken": 1281,
      "ĠEveryone": 1282,
      "Ġparents": 1283,
      "Ġcake": 1284,
      "ather": 1285,
      "ppy": 1286,
      "Ġdr": 1287,
      "Ġba": 1288,
      "ely": 1289,
      "Ġbirds": 1290,
      "Ġpond": 1291,
      "Ġfix": 1292,
      "Ġbutterf": 1293,
      "Ġhimself": 1294,
      "Don": 1295,
      "Ġsurprise": 1296,
      "Ġkid": 1297,
      "Ġcoming": 1298,
      "air": 1299,
      "where": 1300,
      "Ġbehind": 1301,
      "Ġless": 1302,
      "Ġrunning": 1303,
      "Ġprin": 1304,
      "Ġwood": 1305,
      "ins": 1306,
      "Ġstop": 1307,
      "ul": 1308,
      "iss": 1309,
      "Anna": 1310,
      "Ġbre": 1311,
      "Jack": 1312,
      "Ġ-": 1313,
      "Ġhappily": 1314,
      "Ġrealized": 1315,
      "ards": 1316,
      "Ġcreat": 1317,
      "Ġpus": 1318,
      "ĠSally": 1319,
      "Ġyummy": 1320,
      "Ġset": 1321,
      "Ġbunny": 1322,
      "Ġcook": 1323,
      "Ġworked": 1324,
      "Ġgreen": 1325,
      "Ġdark": 1326,
      "Ġste": 1327,
      "Timmy": 1328,
      "Ġfavor": 1329,
      "Wow": 1330,
      "Ġfrog": 1331,
      "Ġbug": 1332,
      "Ġperf": 1333,
      "ĠThat": 1334,
      "Ġcatch": 1335,
      "Ġsing": 1336,
      "Ġfavorite": 1337,
      "Ġate": 1338,
      "ike": 1339,
      "Ġunderst": 1340,
      "Ġdelic": 1341,
      "Ġlight": 1342,
      "Ġfunny": 1343,
      "Ġswim": 1344,
      "Ġcut": 1345,
      "mer": 1346,
      "ation": 1347,
      "Ġprom": 1348,
      "Ġdoes": 1349,
      "Ġsmell": 1350,
      "Ġyellow": 1351,
      "Ġcarefully": 1352,
      "Ġfull": 1353,
      "Ġlearn": 1354,
      "Ġmaking": 1355,
      "Ġtouch": 1356,
      "Ġused": 1357,
      "Ġpart": 1358,
      "Ġsees": 1359,
      "Ġcontin": 1360,
      "bo": 1361,
      "Ġswing": 1362,
      "Ġmess": 1363,
      "aring": 1364,
      "reed": 1365,
      "ĠCan": 1366,
      "Ġduck": 1367,
      "ign": 1368,
      "Ġlooks": 1369,
      "sh": 1370,
      "Sam": 1371,
      "Ġdro": 1372,
      "Ġanother": 1373,
      "akes": 1374,
      "Ġenjoyed": 1375,
      "rel": 1376,
      "Ġtri": 1377,
      "Ġremembered": 1378,
      "Ġarri": 1379,
      "ĠAfter": 1380,
      "Ġanything": 1381,
      "Ġslow": 1382,
      "Ġlion": 1383,
      "Ġwonderful": 1384,
      "Ġtop": 1385,
      "Ġpre": 1386,
      "Ġmove": 1387,
      "andy": 1388,
      "Ġcried": 1389,
      "Ġcold": 1390,
      "Ġtrees": 1391,
      "Ġdoing": 1392,
      "ren": 1393,
      "Ġpretend": 1394,
      "Ġwrong": 1395,
      "Ġbutterfly": 1396,
      "Ġbag": 1397,
      "Ġtall": 1398,
      "eddy": 1399,
      "Ġhat": 1400,
      "ĠDo": 1401,
      "oney": 1402,
      "Ġbuy": 1403,
      "Ġkids": 1404,
      "Hell": 1405,
      "Ġhair": 1406,
      "Ġherself": 1407,
      "Ġrel": 1408,
      "Ġhole": 1409,
      "Hello": 1410,
      "Ġbat": 1411,
      "Ġdream": 1412,
      "Ġsat": 1413,
      "Ġsho": 1414,
      "Ġspot": 1415,
      "ĠIn": 1416,
      "Ġfinished": 1417,
      "Ġmus": 1418,
      "Ġsleep": 1419,
      "Ġbuild": 1420,
      "Ġcontinued": 1421,
      "Ġhill": 1422,
      "Ġcool": 1423,
      "Ġleft": 1424,
      "Ġblocks": 1425,
      "Ġfriendly": 1426,
      "'ll": 1427,
      "Ġdri": 1428,
      "Ġmother": 1429,
      "Ġsurprised": 1430,
      "Ġarrived": 1431,
      "Ġfilled": 1432,
      "Ġpap": 1433,
      "Ġneeded": 1434,
      "Ġlesson": 1435,
      "Ġheld": 1436,
      "ey": 1437,
      "Ġhid": 1438,
      "room": 1439,
      "inally": 1440,
      "ĠEm": 1441,
      "Ġlost": 1442,
      "ined": 1443,
      "Ġwished": 1444,
      "Ġcra": 1445,
      "Ġfair": 1446,
      "Ġwindow": 1447,
      "ĠBenny": 1448,
      "Ġlaugh": 1449,
      "Ġchildren": 1450,
      "Ġthank": 1451,
      "Ġbow": 1452,
      "iver": 1453,
      "Ġgent": 1454,
      "Ġcars": 1455,
      "Ġhold": 1456,
      "Ġable": 1457,
      "ama": 1458,
      "asure": 1459,
      "ield": 1460,
      "Ġmoment": 1461,
      "Ġagreed": 1462,
      "Ġtable": 1463,
      "Ġsnow": 1464,
      "ens": 1465,
      "Ġfloor": 1466,
      "Ġread": 1467,
      "Ġair": 1468,
      "av": 1469,
      "Ġmat": 1470,
      "Ġice": 1471,
      "Ġgetting": 1472,
      "Ġmorning": 1473,
      "Ġown": 1474,
      "Ġturn": 1475,
      "Ġenough": 1476,
      "Ġclose": 1477,
      "His": 1478,
      "ĠK": 1479,
      "Ġfollowed": 1480,
      "Ġyes": 1481,
      "Ġsomeone": 1482,
      "ross": 1483,
      "Ġpoin": 1484,
      "Ġtrying": 1485,
      "cess": 1486,
      "ds": 1487,
      "ĠThere": 1488,
      "This": 1489,
      "ich": 1490,
      "astle": 1491,
      "Ġtight": 1492,
      "Ġfox": 1493,
      "From": 1494,
      "Ġmar": 1495,
      "Then": 1496,
      "ask": 1497,
      "Ġpaint": 1498,
      "ĠNow": 1499,
      "Ġdinner": 1500,
      "Ġbroken": 1501,
      "Ġdelicious": 1502,
      "Ġhun": 1503,
      "Ġstrange": 1504,
      "Ġgi": 1505,
      "oring": 1506,
      "ash": 1507,
      "Ġres": 1508,
      "Ġbrought": 1509,
      "Ġperfect": 1510,
      "gon": 1511,
      "ĠLila": 1512,
      "Ġdanc": 1513,
      "Ġgone": 1514,
      "Ġamazing": 1515,
      "Ġplease": 1516,
      "Ġfew": 1517,
      "Ġvis": 1518,
      "Ġel": 1519,
      "Ġmight": 1520,
      "app": 1521,
      "Ġhear": 1522,
      "Ġforgot": 1523,
      "Ġfinally": 1524,
      "ph": 1525,
      "ĠJen": 1526,
      "Ġwoods": 1527,
      "Ġarm": 1528,
      "ee": 1529,
      "Ġsong": 1530,
      "Ġmet": 1531,
      "Ġdeep": 1532,
      "At": 1533,
      "uffy": 1534,
      "Ġpet": 1535,
      "orn": 1536,
      "irrel": 1537,
      "ĠMolly": 1538,
      "eter": 1539,
      "Ġbeach": 1540,
      "Ġsec": 1541,
      "Ġsail": 1542,
      "ĠWhat": 1543,
      "Ġbaby": 1544,
      "Ġunderstand": 1545,
      "oup": 1546,
      "ĠGra": 1547,
      "Ġdir": 1548,
      "Ġballoon": 1549,
      "Ġleaves": 1550,
      "Ġelse": 1551,
      "Ġsquirrel": 1552,
      "Ġpaper": 1553,
      "ower": 1554,
      "Ġothers": 1555,
      "Ġtail": 1556,
      "Ġwhite": 1557,
      "Ġscary": 1558,
      "Ġcloud": 1559,
      "Ġbooks": 1560,
      "Ġsu": 1561,
      "ance": 1562,
      "Ġdaddy": 1563,
      "icy": 1564,
      "Ġroll": 1565,
      "Ġcastle": 1566,
      "Ġeverything": 1567,
      "ĠThis": 1568,
      "Ġride": 1569,
      "Ġwall": 1570,
      "Ġjoy": 1571,
      "Ġseem": 1572,
      "Ġturned": 1573,
      "immy": 1574,
      "Ġtalk": 1575,
      "Ġcount": 1576,
      "Ġbreak": 1577,
      "Ġhot": 1578,
      "Ġfight": 1579,
      "Ġwasn": 1580,
      "Ġlikes": 1581,
      "Ġgu": 1582,
      "Ġpink": 1583,
      "Ġcomp": 1584,
      "Ġcolors": 1585,
      "Ġamazed": 1586,
      "ling": 1587,
      "red": 1588,
      "ons": 1589,
      "Ġspl": 1590,
      "Ġalone": 1591,
      "der": 1592,
      "Ġpictures": 1593,
      "Ġwon": 1594,
      "Ġwaited": 1595,
      "ĠJill": 1596,
      "Ġfur": 1597,
      "ated": 1598,
      "ĠTommy": 1599,
      "ctor": 1600,
      "Max": 1601,
      "anc": 1602,
      "Ġstayed": 1603,
      "Ġflying": 1604,
      "amp": 1605,
      "Ġjob": 1606,
      "Ġspark": 1607,
      "Ġmoral": 1608,
      "Oh": 1609,
      "os": 1610,
      "Ġve": 1611,
      "Ġele": 1612,
      "ze": 1613,
      "Ġside": 1614,
      "Ġsear": 1615,
      "Ġsometimes": 1616,
      "Ġpromised": 1617,
      "Ġpen": 1618,
      "ually": 1619,
      "Ġpol": 1620,
      "Ġgrow": 1621,
      "Ġlistened": 1622,
      "ire": 1623,
      "Ġmusic": 1624,
      "Ġclimbed": 1625,
      "oom": 1626,
      "Ġpi": 1627,
      "ries": 1628,
      "Ġvisit": 1629,
      "ever": 1630,
      "Ġdanger": 1631,
      "apped": 1632,
      "lf": 1633,
      "ott": 1634,
      "Ġshared": 1635,
      "ĠAmy": 1636,
      "Ġbelie": 1637,
      "key": 1638,
      "Ġtowards": 1639,
      "Ġclot": 1640,
      "Ġhungry": 1641,
      "ix": 1642,
      "me": 1643,
      "row": 1644,
      "ĠBilly": 1645,
      "Ġhide": 1646,
      "Ġgrandma": 1647,
      "Ġclothes": 1648,
      "Ġfield": 1649,
      "ang": 1650,
      "Ġliving": 1651,
      "ucky": 1652,
      "Ġfall": 1653,
      "Ġlake": 1654,
      "Ġmakes": 1655,
      "Ġbigger": 1656,
      "Ġwet": 1657,
      "sw": 1658,
      "Ġmost": 1659,
      "thy": 1660,
      "ĠTo": 1661,
      "elc": 1662,
      "Ġstepped": 1663,
      "rew": 1664,
      "Ġslowly": 1665,
      "Ġansw": 1666,
      "avy": 1667,
      "Hi": 1668,
      "Maybe": 1669,
      "ol": 1670,
      "Ġmust": 1671,
      "man": 1672,
      "Ġwants": 1673,
      "ames": 1674,
      "Why": 1675,
      "ister": 1676,
      "cket": 1677,
      "Ġpuppy": 1678,
      "Ġdisapp": 1679,
      "Ġmagical": 1680,
      "Ġem": 1681,
      "ĠAll": 1682,
      "ope": 1683,
      "Ġdance": 1684,
      "Ġpa": 1685,
      "Ġneigh": 1686,
      "Ġsilly": 1687,
      "ained": 1688,
      "bby": 1689,
      "Ġneighb": 1690,
      "orm": 1691,
      "ĠFl": 1692,
      "bble": 1693,
      "Ġbee": 1694,
      "Ġpulled": 1695,
      "set": 1696,
      "Ġbike": 1697,
      "Ġbott": 1698,
      "igg": 1699,
      "Ġfaster": 1700,
      "gg": 1701,
      "zz": 1702,
      "Ġcream": 1703,
      "pping": 1704,
      "Ġplan": 1705,
      "ipped": 1706,
      "ud": 1707,
      "Ġsmiles": 1708,
      "Ġbar": 1709,
      "ugg": 1710,
      "Ġtreasure": 1711,
      "weet": 1712,
      "Ġatt": 1713,
      "Ġjoin": 1714,
      "Ġca": 1715,
      "ssed": 1716,
      "Ġbuck": 1717,
      "ence": 1718,
      "ateful": 1719,
      "Ġfarmer": 1720,
      "phant": 1721,
      "Ġsecret": 1722,
      "Ġblank": 1723,
      "Ġcrying": 1724,
      "eared": 1725,
      "Ġsit": 1726,
      "Ġleave": 1727,
      "Ġtrain": 1728,
      "Ġmonster": 1729,
      "Ġparty": 1730,
      "Ġheavy": 1731,
      "Ġhelping": 1732,
      "Ġworried": 1733,
      "Ġblack": 1734,
      "Ġgrateful": 1735,
      "Ġelephant": 1736,
      "ventually": 1737,
      "fort": 1738,
      "less": 1739,
      "Ġcup": 1740,
      "ment": 1741,
      "Ġblanket": 1742,
      "Ġmix": 1743,
      "Ġacross": 1744,
      "eces": 1745,
      "Ġbelieve": 1746,
      "Ġsister": 1747,
      "ear": 1748,
      "Ġwelc": 1749,
      "unch": 1750,
      "Ġreach": 1751,
      "Ġpieces": 1752,
      "Ġpro": 1753,
      "Ġdangerous": 1754,
      "Ġsuch": 1755,
      "iting": 1756,
      "Ġlon": 1757,
      "Ġshap": 1758,
      "Ġdragon": 1759,
      "Ġteddy": 1760,
      "Ġcookies": 1761,
      "ased": 1762,
      "OK": 1763,
      "Ġwear": 1764,
      "Ġje": 1765,
      "Ġland": 1766,
      "Ġdolls": 1767,
      "Ġlonely": 1768,
      "Ġgif": 1769,
      "Ġcolorful": 1770,
      "ming": 1771,
      "Ġexploring": 1772,
      "Ġbath": 1773,
      "Bob": 1774,
      "Okay": 1775,
      "Ġce": 1776,
      "pper": 1777,
      "Ġplant": 1778,
      "ĠMaybe": 1779,
      "Ġorange": 1780,
      "Ġacc": 1781,
      "br": 1782,
      "Ġtreat": 1783,
      "outh": 1784,
      "ose": 1785,
      "rot": 1786,
      "ises": 1787,
      "Ġmoney": 1788,
      "Ġrace": 1789,
      "umb": 1790,
      "Ġbroke": 1791,
      "Ġgentle": 1792,
      "iet": 1793,
      "ney": 1794,
      "Ġstuck": 1795,
      "Ġclosed": 1796,
      "Ġowl": 1797,
      "Ġyoung": 1798,
      "Ġwords": 1799,
      "ident": 1800,
      "Ġwithout": 1801,
      "Ġclapped": 1802,
      "Ġmouth": 1803,
      "Ġeverywhere": 1804,
      "Ġsame": 1805,
      "Ġstand": 1806,
      "ract": 1807,
      "Ġhig": 1808,
      "Ġnap": 1809,
      "Ġcandy": 1810,
      "Ġheal": 1811,
      "Ġsuddenly": 1812,
      "Ġriver": 1813,
      "Ġdoctor": 1814,
      "Sure": 1815,
      "Ġpot": 1816,
      "Ġju": 1817,
      "Ġdes": 1818,
      "Ġsnack": 1819,
      "Ġseemed": 1820,
      "Finally": 1821,
      "Ġhappen": 1822,
      "Ġeating": 1823,
      "Ġkite": 1824,
      "Ġbucket": 1825,
      "ored": 1826,
      "Ġteac": 1827,
      "Ġtown": 1828,
      "ĠDaddy": 1829,
      "ek": 1830,
      "uit": 1831,
      "Ġcour": 1832,
      "Ġshop": 1833,
      "Ġquiet": 1834,
      "Ġlonger": 1835,
      "Ġapple": 1836,
      "hone": 1837,
      "ts": 1838,
      "Ġpers": 1839,
      "chool": 1840,
      "fused": 1841,
      "oun": 1842,
      "Ġheart": 1843,
      "Ġsmo": 1844,
      "Ġbite": 1845,
      "Ġasks": 1846,
      "Ġprincess": 1847,
      "Ġmin": 1848,
      "itty": 1849,
      "Ġcheered": 1850,
      "Ġhigher": 1851,
      "Ġfree": 1852,
      "Ġscream": 1853,
      "Ġshoes": 1854,
      "Ġtiny": 1855,
      "Ġtoday": 1856,
      "ieved": 1857,
      "Ġthough": 1858,
      "Ġcourse": 1859,
      "Do": 1860,
      "sy": 1861,
      "Ġschool": 1862,
      "Ġswam": 1863,
      "Ġadventures": 1864,
      "Ġhoped": 1865,
      "ĠTweet": 1866,
      "Ġupset": 1867,
      "ier": 1868,
      "Ġwin": 1869,
      "Ġjour": 1870,
      "Ġbrown": 1871,
      "Ġwouldn": 1872,
      "Ġcarry": 1873,
      "Lucy": 1874,
      "Ġbring": 1875,
      "asket": 1876,
      "Ġdirty": 1877,
      "Ġbasket": 1878,
      "ions": 1879,
      "Ġowner": 1880,
      "Ġcave": 1881,
      "Ġob": 1882,
      "Ġalong": 1883,
      "Ġfruit": 1884,
      "Ġhor": 1885,
      "Ġplac": 1886,
      "ĠMr": 1887,
      "Ġpocket": 1888,
      "Ġnearby": 1889,
      "Ġaccident": 1890,
      "Ġsign": 1891,
      "Ġthrew": 1892,
      "Ġtwins": 1893,
      "Ġdrove": 1894,
      "And": 1895,
      "Ġstu": 1896,
      "Ġcolour": 1897,
      "Ġpushed": 1898,
      "Ġfairy": 1899,
      "Ġwelcome": 1900,
      "yard": 1901,
      "Ġcray": 1902,
      "Ġteacher": 1903,
      "ho": 1904,
      "Ġpower": 1905,
      "Ġspr": 1906,
      "Ġcaught": 1907,
      "Ġpie": 1908,
      "Ġbackyard": 1909,
      "Ġcoll": 1910,
      "Ġexplained": 1911,
      "Ġthinks": 1912,
      "Ġnaught": 1913,
      "Ġyear": 1914,
      "de": 1915,
      "ount": 1916,
      "Ġinst": 1917,
      "Ġpack": 1918,
      "Ġstre": 1919,
      "Ġsea": 1920,
      "ail": 1921,
      "Ġdropped": 1922,
      "ead": 1923,
      "Ġmonkey": 1924,
      "ĠEmma": 1925,
      "Ġbowl": 1926,
      "Ġ3": 1927,
      "Ġgames": 1928,
      "Ġsmart": 1929,
      "Ġexp": 1930,
      "Ġsunny": 1931,
      "Ġnaughty": 1932,
      "cle": 1933,
      "ward": 1934,
      "Ġrelieved": 1935,
      "ible": 1936,
      "Ġwings": 1937,
      "Ġlunch": 1938,
      "Ġtaking": 1939,
      "cked": 1940,
      "bow": 1941,
      "Ġcarrot": 1942,
      "Ġsoup": 1943,
      "vel": 1944,
      "Ġlaughing": 1945,
      "Ġtower": 1946,
      "ĠFluffy": 1947,
      "pe": 1948,
      "Ġdry": 1949,
      "Ġyard": 1950,
      "Ġswings": 1951,
      "Ġmoved": 1952,
      "Ġwoke": 1953,
      "Ġboun": 1954,
      "adow": 1955,
      "Ġrainbow": 1956,
      "Ġbelong": 1957,
      "Ġlate": 1958,
      "Ġdist": 1959,
      "Lila": 1960,
      "Ġwell": 1961,
      "Ġlife": 1962,
      "Ġvill": 1963,
      "Ġes": 1964,
      "Ġcor": 1965,
      "Ġmine": 1966,
      "Ġforget": 1967,
      "ush": 1968,
      "Ġpres": 1969,
      "Mia": 1970,
      "orrow": 1971,
      "vered": 1972,
      "Ġstars": 1973,
      "Ġshook": 1974,
      "Ġnothing": 1975,
      "Ġwish": 1976,
      "ĠJimmy": 1977,
      "Molly": 1978,
      "uched": 1979,
      "ining": 1980,
      "Ġtouched": 1981,
      "Ġmark": 1982,
      "ung": 1983,
      "Ġtrou": 1984,
      "Ġpast": 1985,
      "itting": 1986,
      "ĠMama": 1987,
      "ocked": 1988,
      "Ġwise": 1989,
      "Ġbush": 1990,
      "Ġbusy": 1991,
      "Ġben": 1992,
      "Ġspoon": 1993,
      "Ġmyster": 1994,
      "ĠSoon": 1995,
      "Ġmail": 1996,
      "Ġrocks": 1997,
      "aur": 1998,
      "Ġsang": 1999,
      "Ġexciting": 2000,
      "Ġgigg": 2001,
      "Ġruns": 2002,
      "Later": 2003,
      "la": 2004,
      "Ġpath": 2005,
      "Ġbreat": 2006,
      "Ġinv": 2007,
      "ize": 2008,
      "Ġthrow": 2009,
      "ountain": 2010,
      "gged": 2011,
      "issed": 2012,
      "Ġleg": 2013,
      "ÅĵI": 2014,
      "Ġpresent": 2015,
      "Ġcir": 2016,
      "Ġsmiling": 2017,
      "Ġpeace": 2018,
      "Ġresp": 2019,
      "ĠGrandma": 2020,
      "Ġneighbor": 2021,
      "ped": 2022,
      "tur": 2023,
      "Ġbutt": 2024,
      "Ġnoises": 2025,
      "Ġcozy": 2026,
      "Ġsick": 2027,
      "Ġmiss": 2028,
      "Ġinc": 2029,
      "ĠMary": 2030,
      "aughter": 2031,
      "rest": 2032,
      "Ġdays": 2033,
      "Ġshapes": 2034,
      "Ġwhist": 2035,
      "Ġretur": 2036,
      "Ġcreature": 2037,
      "Ġsinging": 2038,
      "ĠInside": 2039,
      "Ġholding": 2040,
      "irt": 2041,
      "Ġeas": 2042,
      "Ġlift": 2043,
      "Ġwatching": 2044,
      "Ġtasted": 2045,
      "Ġswimming": 2046,
      "Ġpudd": 2047,
      "Ġchair": 2048,
      "Ġfeels": 2049,
      "Ġdelight": 2050,
      "erest": 2051,
      "ndp": 2052,
      "Ġhit": 2053,
      "anch": 2054,
      "itten": 2055,
      "Ġneck": 2056,
      "Ġbranch": 2057,
      "Ġinterest": 2058,
      "ĠSammy": 2059,
      "shine": 2060,
      "Ġjourney": 2061,
      "Ġsur": 2062,
      "Ġwhe": 2063,
      "read": 2064,
      "llo": 2065,
      "Ġdrink": 2066,
      "Ġaf": 2067,
      "board": 2068,
      "alm": 2069,
      "Ġrob": 2070,
      "Ġsunshine": 2071,
      "Tommy": 2072,
      "Ġdisco": 2073,
      "thday": 2074,
      "Ġturns": 2075,
      "Mum": 2076,
      "to": 2077,
      "Ġhuge": 2078,
      "Ġwondered": 2079,
      "Ġpatient": 2080,
      "Ġpointed": 2081,
      "Ġdanced": 2082,
      "Ġeag": 2083,
      "Ġcute": 2084,
      "Ġhorse": 2085,
      "Ġrobot": 2086,
      "Of": 2087,
      "Ġletter": 2088,
      "Ġpig": 2089,
      "Ġnest": 2090,
      "Ġnose": 2091,
      "Ġkey": 2092,
      "Ġimag": 2093,
      "ness": 2094,
      "Ġsitting": 2095,
      "Ġfit": 2096,
      "Ġpract": 2097,
      "Ġjuice": 2098,
      "fish": 2099,
      "Ġbought": 2100,
      "idge": 2101,
      "Ġround": 2102,
      "epend": 2103,
      "Ġhugs": 2104,
      "Hey": 2105,
      "Ġclouds": 2106,
      "Ġtom": 2107,
      "Ġdaughter": 2108,
      "Ġear": 2109,
      "Ġcraw": 2110,
      "Ġgift": 2111,
      "amed": 2112,
      "Ġshr": 2113,
      "Ġact": 2114,
      "Ġpurp": 2115,
      "Ġspo": 2116,
      "Ġbottle": 2117,
      "ove": 2118,
      "Ġent": 2119,
      "Ġbur": 2120,
      "Ġpass": 2121,
      "Ġbirthday": 2122,
      "Ġanyone": 2123,
      "Ġaccidentally": 2124,
      "lice": 2125,
      "Ġfence": 2126,
      "Ġcard": 2127,
      "Ġsack": 2128,
      "Ġonto": 2129,
      "raid": 2130,
      "Ġorgan": 2131,
      "Ġcomes": 2132,
      "izz": 2133,
      "Ġvillage": 2134,
      "Come": 2135,
      "itch": 2136,
      "ert": 2137,
      "Ġadm": 2138,
      "Ġsounds": 2139,
      "Ġarms": 2140,
      "Ġafraid": 2141,
      "Just": 2142,
      "ittens": 2143,
      "ĠEmily": 2144,
      "Ġpiece": 2145,
      "een": 2146,
      "Ġmist": 2147,
      "ont": 2148,
      "let": 2149,
      "Ġspin": 2150,
      "Ġspid": 2151,
      "Ġlovely": 2152,
      "Ġforever": 2153,
      "ndpa": 2154,
      "Ġinteresting": 2155,
      "ĠFinally": 2156,
      "Ġfront": 2157,
      "Ġinstead": 2158,
      "og": 2159,
      "Ġtun": 2160,
      "ity": 2161,
      "Ġwhich": 2162,
      "Ġjar": 2163,
      "Ġcho": 2164,
      "Ġquest": 2165,
      "ĠCome": 2166,
      "Ġsnowman": 2167,
      "Ġminut": 2168,
      "Ġcollect": 2169,
      "Ġstreet": 2170,
      "Ġphone": 2171,
      "Ġcoin": 2172,
      "Ġdriver": 2173,
      "ĠJenny": 2174,
      "Ġbench": 2175,
      "Ġpurple": 2176,
      "My": 2177,
      "obby": 2178,
      "Ġ'": 2179,
      "Ġbal": 2180,
      "Ġthin": 2181,
      "Ġstories": 2182,
      "Ġap": 2183,
      "Ġlad": 2184,
      "Ġlucky": 2185,
      "Ġmad": 2186,
      "lebr": 2187,
      "oose": 2188,
      "blem": 2189,
      "Ġbuilding": 2190,
      "ced": 2191,
      "sp": 2192,
      "Ġsuc": 2193,
      "Ġeventually": 2194,
      "Ġmeet": 2195,
      "Ġproblem": 2196,
      "Ġcelebr": 2197,
      "Ġhello": 2198,
      "Ġpool": 2199,
      "arge": 2200,
      "Ġband": 2201,
      "Ġgather": 2202,
      "ord": 2203,
      "eth": 2204,
      "Ġshining": 2205,
      "ĠJake": 2206,
      "Ġgrab": 2207,
      "ĠThank": 2208,
      "Ġrolled": 2209,
      "Now": 2210,
      "nic": 2211,
      "unt": 2212,
      "Ġpicnic": 2213,
      "col": 2214,
      "Ġspotted": 2215,
      "Ġsearch": 2216,
      "fortable": 2217,
      "Ġladder": 2218,
      "Ġwra": 2219,
      "Ġwild": 2220,
      "cean": 2221,
      "Ġspent": 2222,
      "Ġspicy": 2223,
      "Ġwhole": 2224,
      "ĠCh": 2225,
      "Ġfold": 2226,
      "Good": 2227,
      "Ġocean": 2228,
      "Ġappeared": 2229,
      "Ġperson": 2230,
      "Ġhoney": 2231,
      "Ġwearing": 2232,
      "Ġkick": 2233,
      "Ġash": 2234,
      "Ġtasty": 2235,
      "Ġsmelled": 2236,
      "Ġsearched": 2237,
      "Ġanswer": 2238,
      "ten": 2239,
      "Ġshy": 2240,
      "Ġtalked": 2241,
      "Ġhealthy": 2242,
      "Ġcrayons": 2243,
      "In": 2244,
      "Ġasleep": 2245,
      "Ġclever": 2246,
      "Ġsandw": 2247,
      "Ġplaces": 2248,
      "Ġlater": 2249,
      "Ġsaf": 2250,
      "Ġbubble": 2251,
      "Ġtalking": 2252,
      "ces": 2253,
      "hile": 2254,
      "Ġlarge": 2255,
      "Ġmach": 2256,
      "Ġcorner": 2257,
      "ond": 2258,
      "ĠWith": 2259,
      "Ġhar": 2260,
      "Ġstar": 2261,
      "Ġremind": 2262,
      "Ġconfused": 2263,
      "Ġemb": 2264,
      "per": 2265,
      "Ġnut": 2266,
      "ird": 2267,
      "Ġsol": 2268,
      "Ġkitten": 2269,
      "Ġhope": 2270,
      "Ġsplas": 2271,
      "Ġsmooth": 2272,
      "nn": 2273,
      "ometimes": 2274,
      "ours": 2275,
      "Ġapples": 2276,
      "ball": 2277,
      "Ġfing": 2278,
      "Ġlay": 2279,
      "Ġhelpful": 2280,
      "Ġprot": 2281,
      "Ġfarm": 2282,
      "Ġtrip": 2283,
      "inted": 2284,
      "ese": 2285,
      "Ġfeather": 2286,
      "Ġwaiting": 2287,
      "Ġpush": 2288,
      "Ġscreamed": 2289,
      "old": 2290,
      "Ġser": 2291,
      "Ġoven": 2292,
      "arra": 2293,
      "ete": 2294,
      "Ġval": 2295,
      "Ġwrite": 2296,
      "Ġbugs": 2297,
      "Ġembarra": 2298,
      "Ġblew": 2299,
      "Ġcow": 2300,
      "Ġegg": 2301,
      "Ġplane": 2302,
      "Ġrec": 2303,
      "Ġfinish": 2304,
      "Ġrocket": 2305,
      "ular": 2306,
      "Ġpuddle": 2307,
      "Ġspider": 2308,
      "den": 2309,
      "Ġwide": 2310,
      "Ġstone": 2311,
      "Ġteach": 2312,
      "Ġpill": 2313,
      "Ġwhenever": 2314,
      "usie": 2315,
      "Ġdisappo": 2316,
      "Ġmysterious": 2317,
      "Ġrespect": 2318,
      "Ġprotect": 2319,
      "aw": 2320,
      "Ġign": 2321,
      "Ġpile": 2322,
      "Ġchest": 2323,
      "Ġstorm": 2324,
      "Ġzoom": 2325,
      "ĠTogether": 2326,
      "Jane": 2327,
      "Ġcalm": 2328,
      "Ġforward": 2329,
      "Ġducks": 2330,
      "Ġgently": 2331,
      "Ġmatter": 2332,
      "Ġfurry": 2333,
      "ancy": 2334,
      "Every": 2335,
      "ĠO": 2336,
      "els": 2337,
      "ĠJust": 2338,
      "Ġgroup": 2339,
      "Ġpuzz": 2340,
      "airs": 2341,
      "eterm": 2342,
      "ground": 2343,
      "erly": 2344,
      "Ġdeterm": 2345,
      "Ġlem": 2346,
      "Ġtakes": 2347,
      "Ġimpre": 2348,
      "Ġfoot": 2349,
      "Ġcouch": 2350,
      "Ġnet": 2351,
      "Ġking": 2352,
      "Ġfeet": 2353,
      "Ġseek": 2354,
      "Ġcarried": 2355,
      "Ġfixed": 2356,
      "ĠKitty": 2357,
      "Ġtrouble": 2358,
      "ult": 2359,
      "Ġdrive": 2360,
      "Ġbreath": 2361,
      "Ġwave": 2362,
      "Ġmil": 2363,
      "Ġmind": 2364,
      "Ġshirt": 2365,
      "Ġhidden": 2366,
      "Mama": 2367,
      "Ġspe": 2368,
      "Ġcheese": 2369,
      "ĠRe": 2370,
      "Ġpowerful": 2371,
      "St": 2372,
      "cer": 2373,
      "Ġpizz": 2374,
      "Ġkiss": 2375,
      "Ġyelled": 2376,
      "Ġdisappointed": 2377,
      "eb": 2378,
      "Ġcheer": 2379,
      "Ġtaste": 2380,
      "Ġemp": 2381,
      "ale": 2382,
      "Ġfig": 2383,
      "Ġmot": 2384,
      "Ġpar": 2385,
      "Ġstood": 2386,
      "Ġstep": 2387,
      "Ġspread": 2388,
      "Ġmeadow": 2389,
      "Ġstanding": 2390,
      "Ġembarrassed": 2391,
      "Ġfancy": 2392,
      "Ġmed": 2393,
      "arp": 2394,
      "Ġgas": 2395,
      "ĠSome": 2396,
      "lex": 2397,
      "Ġsharp": 2398,
      "Ġlast": 2399,
      "ĠJohnny": 2400,
      "Ġempty": 2401,
      "Ġber": 2402,
      "isa": 2403,
      "owed": 2404,
      "getable": 2405,
      "Ġsleepy": 2406,
      "up": 2407,
      "Ġhon": 2408,
      "Ġpop": 2409,
      "Ġbell": 2410,
      "Ġlaw": 2411,
      "Ġstring": 2412,
      "Ġgrew": 2413,
      "Ġsongs": 2414,
      "Ġvegetable": 2415,
      "aking": 2416,
      "vous": 2417,
      "ĠSt": 2418,
      "Ġstir": 2419,
      "Ġshell": 2420,
      "?\".": 2421,
      "Ġpromise": 2422,
      "Ġpretended": 2423,
      "Ġdancing": 2424,
      "ife": 2425,
      "ĠEverywhere": 2426,
      "Ġpizza": 2427,
      "Where": 2428,
      "dle": 2429,
      "Ġsour": 2430,
      "Ġdi": 2431,
      "Ġmummy": 2432,
      "Ġgar": 2433,
      "Ġsal": 2434,
      "Ġloves": 2435,
      "Ġroad": 2436,
      "Ġcoat": 2437,
      "hin": 2438,
      "Ġple": 2439,
      "ĠTV": 2440,
      "ors": 2441,
      "ĠBe": 2442,
      "urse": 2443,
      "Ġhopping": 2444,
      "ungle": 2445,
      "Ġmilk": 2446,
      "'d": 2447,
      "Jimmy": 2448,
      "als": 2449,
      "Ġjungle": 2450,
      "Ġblow": 2451,
      "Ġsnake": 2452,
      "Ġtightly": 2453,
      "Ġmachine": 2454,
      "cap": 2455,
      "ym": 2456,
      "Ġwash": 2457,
      "ato": 2458,
      "Ġstra": 2459,
      "Ġseat": 2460,
      "Ġexam": 2461,
      "ĠEven": 2462,
      "Soon": 2463,
      "Ġbread": 2464,
      "Ġhiding": 2465,
      "Ġpeaceful": 2466,
      "Ġwip": 2467,
      "Ġner": 2468,
      "ĠSometimes": 2469,
      "osaur": 2470,
      "Ġmotor": 2471,
      "Ġsel": 2472,
      "Sarah": 2473,
      "Ġgives": 2474,
      "Ġdirt": 2475,
      "Ġtid": 2476,
      "Ġban": 2477,
      "era": 2478,
      "Ġmountain": 2479,
      "Ġlive": 2480,
      "Ġbecome": 2481,
      "Ġjew": 2482,
      "Ġnervous": 2483,
      "Mummy": 2484,
      "gly": 2485,
      "Ġhur": 2486,
      "Ġfil": 2487,
      "Ġcoo": 2488,
      "Ġmu": 2489,
      "Ġmud": 2490,
      "Ġugly": 2491,
      "ighed": 2492,
      "Ġvase": 2493,
      "Ġtrust": 2494,
      "Ġslid": 2495,
      "Ġforgive": 2496,
      "Ġrude": 2497,
      "Ġsupp": 2498,
      "Ġsparkly": 2499,
      "Ġpolite": 2500,
      "cles": 2501,
      "Ġmic": 2502,
      "Ġplayground": 2503,
      "Ġflut": 2504,
      "Ġjumping": 2505,
      "box": 2506,
      "Ġmatch": 2507,
      "Ġgarage": 2508,
      "Please": 2509,
      "mo": 2510,
      "ual": 2511,
      "ying": 2512,
      "Ġhours": 2513,
      "Ġcap": 2514,
      "oman": 2515,
      "Ġrope": 2516,
      "aser": 2517,
      "Ġdinosaur": 2518,
      "Ġcreative": 2519,
      "Ġcookie": 2520,
      "Ġfighting": 2521,
      "Ġsuccess": 2522,
      "Ġwoman": 2523,
      "Ġchick": 2524,
      "Ġsticks": 2525,
      "Ġwhistle": 2526,
      "Ġdetermined": 2527,
      "Ġthese": 2528,
      "Ġgen": 2529,
      "cks": 2530,
      "Ġreg": 2531,
      "ĠMittens": 2532,
      "Ġdecor": 2533,
      "izzy": 2534,
      "ĠPete": 2535,
      "Ġanswered": 2536,
      "Ġtomorrow": 2537,
      "Ġhum": 2538,
      "Ġpri": 2539,
      "Ġasking": 2540,
      "Ġchased": 2541,
      "Ġlemon": 2542,
      "Ġselfish": 2543,
      "ĠOn": 2544,
      "iddle": 2545,
      "Ġsave": 2546,
      "Ġstret": 2547,
      "Ġknocked": 2548,
      "Ġfaces": 2549,
      "Ġchew": 2550,
      "Ġminutes": 2551,
      "Dad": 2552,
      "To": 2553,
      "Ġbark": 2554,
      "Ġcart": 2555,
      "ones": 2556,
      "cept": 2557,
      "Ġspray": 2558,
      "Ġeasy": 2559,
      "Ġashamed": 2560,
      "Ġweak": 2561,
      "Ġknee": 2562,
      "Ġskipped": 2563,
      "Ġbedroom": 2564,
      "Ġpaw": 2565,
      "Ġbalance": 2566,
      "Jill": 2567,
      "ipper": 2568,
      "anut": 2569,
      "Ġshelf": 2570,
      "Ġsharing": 2571,
      "Ġflag": 2572,
      "Ġdrew": 2573,
      "Ġbarked": 2574,
      "Ġplants": 2575,
      "fl": 2576,
      "Ġtest": 2577,
      "Ġpour": 2578,
      "Ġship": 2579,
      "Ġwhis": 2580,
      "Ġjoke": 2581,
      "Ġsplash": 2582,
      "Ġreturned": 2583,
      "Ġpin": 2584,
      "ĠSusie": 2585,
      "ana": 2586,
      "ĠHow": 2587,
      "Ġshore": 2588,
      "umber": 2589,
      "Ġexcite": 2590,
      "Ġknowing": 2591,
      "ĠPeter": 2592,
      "Ġpainting": 2593,
      "Ġpolice": 2594,
      "most": 2595,
      "Be": 2596,
      "light": 2597,
      "ina": 2598,
      "Ġhears": 2599,
      "Ġroar": 2600,
      "Ġswan": 2601,
      "Ġyourself": 2602,
      "Ġgray": 2603,
      "Ġtears": 2604,
      "Ġlanded": 2605,
      "Ġbutton": 2606,
      "Ġchocol": 2607,
      "Ġpas": 2608,
      "itter": 2609,
      "ĠJim": 2610,
      "Ġalmost": 2611,
      "Ġmeant": 2612,
      "Ġtrue": 2613,
      "Ġteeth": 2614,
      "Ġmarble": 2615,
      "Ġgiant": 2616,
      "Ġneckl": 2617,
      "Ġexcitement": 2618,
      "Ġpassed": 2619,
      "Ġwore": 2620,
      "ital": 2621,
      "Ġmiddle": 2622,
      "There": 2623,
      "Ġgoes": 2624,
      "Ġdogs": 2625,
      "Ġhosp": 2626,
      "Joe": 2627,
      "Ġdisappeared": 2628,
      "Ġgiggled": 2629,
      "Ġfather": 2630,
      "Ġline": 2631,
      "Ġcand": 2632,
      "Ġdepend": 2633,
      "Ġplate": 2634,
      "ĠMum": 2635,
      "Ġclown": 2636,
      "umpy": 2637,
      "Ġtea": 2638,
      "Ġunderstood": 2639,
      "Ġgener": 2640,
      "Ġhospital": 2641,
      "ination": 2642,
      "Ġmaybe": 2643,
      "Ġhang": 2644,
      "ĠMummy": 2645,
      "Ġfluffy": 2646,
      "Ġsnacks": 2647,
      "Ġcolourful": 2648,
      "Ġmarket": 2649,
      "Ġchocolate": 2650,
      "pack": 2651,
      "Ġant": 2652,
      "Ġmissed": 2653,
      "ating": 2654,
      "ĠTheir": 2655,
      "Ġweek": 2656,
      "Ġlead": 2657,
      "ushed": 2658,
      "usual": 2659,
      "Ġunusual": 2660,
      "Ġtreats": 2661,
      "Sally": 2662,
      "Sue": 2663,
      "ls": 2664,
      "Ġed": 2665,
      "Ġhel": 2666,
      "lla": 2667,
      "ĠLe": 2668,
      "illi": 2669,
      "Ġknight": 2670,
      "Ġglue": 2671,
      "ĠGo": 2672,
      "Ġcrack": 2673,
      "Ġtells": 2674,
      "ĠTweety": 2675,
      "Ġtidy": 2676,
      "Ġgenerous": 2677,
      "cy": 2678,
      "uce": 2679,
      "Ġwander": 2680,
      "Ġwagon": 2681,
      "ĠBobby": 2682,
      "Ġang": 2683,
      "Ġfeed": 2684,
      "Ġfear": 2685,
      "elly": 2686,
      "ĠDon": 2687,
      "Ġtaken": 2688,
      "Ġzoo": 2689,
      "ensive": 2690,
      "Ġmarch": 2691,
      "Ġsailed": 2692,
      "Ġbathroom": 2693,
      "Ġexpensive": 2694,
      "Ġgathered": 2695,
      "Ġfigure": 2696,
      "port": 2697,
      "Ġter": 2698,
      "Ġtank": 2699,
      "Ġwagged": 2700,
      "Ġcage": 2701,
      "Ġcross": 2702,
      "Ġrid": 2703,
      "Ġoften": 2704,
      "Ġboard": 2705,
      "ÅĵLet": 2706,
      "Ġhappening": 2707,
      "cape": 2708,
      "Gra": 2709,
      "ub": 2710,
      "Ġtag": 2711,
      "Ġpir": 2712,
      "arl": 2713,
      "imp": 2714,
      "Ġthick": 2715,
      "Ġstuff": 2716,
      "alous": 2717,
      "Ġpoor": 2718,
      "Ġcalling": 2719,
      "Ġpenny": 2720,
      "Ġjealous": 2721,
      "Ġspoil": 2722,
      "Ġsandwich": 2723,
      "Ġnecklace": 2724,
      "Ġav": 2725,
      "Ġadd": 2726,
      "Ġnods": 2727,
      "Ġmanag": 2728,
      "Ġworm": 2729,
      "Ġpeanut": 2730,
      "Ġtwirl": 2731,
      "Ġfrown": 2732,
      "Ġdrawing": 2733,
      "Ġthankful": 2734,
      "Ġpointing": 2735,
      "Stop": 2736,
      "Ġdependable": 2737,
      "ches": 2738,
      "Ġcop": 2739,
      "ari": 2740,
      "Ġsaved": 2741,
      "ĠLisa": 2742,
      "unk": 2743,
      "ĠAnn": 2744,
      "que": 2745,
      "Ġtaught": 2746,
      "ĠPlease": 2747,
      "Ġleaf": 2748,
      "Ġsmelly": 2749,
      "Ġpillow": 2750,
      "Ġsil": 2751,
      "Ġwaves": 2752,
      "Ġfake": 2753,
      "erp": 2754,
      "Ġok": 2755,
      "Ġanc": 2756,
      "Ġlock": 2757,
      "ĠAt": 2758,
      "Ġcloth": 2759,
      "Ġscr": 2760,
      "Ġmeasure": 2761,
      "ecially": 2762,
      "Ġmod": 2763,
      "Ġmoon": 2764,
      "Ġbull": 2765,
      "Ġcontent": 2766,
      "Ġcrab": 2767,
      "Ġtunn": 2768,
      "Ġpuzzle": 2769,
      "Ġterri": 2770,
      "pecially": 2771,
      "Ġcri": 2772,
      "Ġdest": 2773,
      "Ġcovered": 2774,
      "ÅĵThat": 2775,
      "Ġrealised": 2776,
      "Ġdrum": 2777,
      "Ġespecially": 2778,
      "Ġancient": 2779,
      "Ġbone": 2780,
      "Ġlit": 2781,
      "imed": 2782,
      "Ġweal": 2783,
      "Ġclap": 2784,
      "ĠWhy": 2785,
      "Ġworking": 2786,
      "iff": 2787,
      "ĠEnd": 2788,
      "Ġtowel": 2789,
      "Ġvegetables": 2790,
      "Amy": 2791,
      "rated": 2792,
      "Ġtent": 2793,
      "Ġsight": 2794,
      "iger": 2795,
      "Ġlog": 2796,
      "Ġgoat": 2797,
      "Ġgold": 2798,
      "ured": 2799,
      "Ġclass": 2800,
      "Ġqueen": 2801,
      "Ġmessy": 2802,
      "Ġjewel": 2803,
      "Ġer": 2804,
      "ĠTeddy": 2805,
      "Ġring": 2806,
      "Ġstones": 2807,
      "Ġfork": 2808,
      "Ġscar": 2809,
      "Ġbrush": 2810,
      "ief": 2811,
      "Ġlazy": 2812,
      "Ġmoving": 2813,
      "selves": 2814,
      "Ġwalks": 2815,
      "Ġdistance": 2816,
      "Ġincred": 2817,
      "Ġhonest": 2818,
      "Billy": 2819,
      "Em": 2820,
      "Who": 2821,
      "not": 2822,
      "oe": 2823,
      "ror": 2824,
      "Ġwis": 2825,
      "Ġboring": 2826,
      "Ġmir": 2827,
      "Ġjam": 2828,
      "ella": 2829,
      "Ġchange": 2830,
      "Ġstronger": 2831,
      "Ġsweetie": 2832,
      "Ġruined": 2833,
      "Ġperform": 2834,
      "Ġwheel": 2835,
      "illiant": 2836,
      "aby": 2837,
      "gy": 2838,
      "iness": 2839,
      "Ġbored": 2840,
      "reen": 2841,
      "Ġlying": 2842,
      "ilt": 2843,
      "orge": 2844,
      "ots": 2845,
      "Ġrough": 2846,
      "Ġsold": 2847,
      "ĠLittle": 2848,
      "ĠBr": 2849,
      "ĠMar": 2850,
      "Ġcannot": 2851,
      "Ġclay": 2852,
      "Ġbrilliant": 2853,
      "Ġgrace": 2854,
      "ÅĵIt": 2855,
      "Ġpicking": 2856,
      "Ġcheck": 2857,
      "ĠMrs": 2858,
      "Ġharm": 2859,
      "Ġsplashed": 2860,
      "Ġpleased": 2861,
      "Ġtick": 2862,
      "edient": 2863,
      "Ġcher": 2864,
      "Ġdish": 2865,
      "arn": 2866,
      "Ġgun": 2867,
      "Ġrad": 2868,
      "Ġboss": 2869,
      "ested": 2870,
      "ustrated": 2871,
      "Ġpee": 2872,
      "Ġdrank": 2873,
      "Ġedge": 2874,
      "Jen": 2875,
      "Well": 2876,
      "now": 2877,
      "ory": 2878,
      "Ġyarn": 2879,
      "Ġsoap": 2880,
      "Ġsmaller": 2881,
      "Ġglow": 2882,
      "Ġdeer": 2883,
      "Ġeager": 2884,
      "Ġquestions": 2885,
      "fic": 2886,
      "land": 2887,
      "ti": 2888,
      "Ġhorn": 2889,
      "orry": 2890,
      "Ġones": 2891,
      "illed": 2892,
      "Ġpray": 2893,
      "Ġcaterp": 2894,
      "Ġord": 2895,
      "Ġcomfortable": 2896,
      "ctus": 2897,
      "Ġfrustrated": 2898,
      "Ġtrucks": 2899,
      "Ġaccept": 2900,
      "Ġzip": 2901,
      "Ġmighty": 2902,
      "Ġobedient": 2903,
      "Ġcircles": 2904,
      "Ġdiscovered": 2905,
      "Ġmedic": 2906,
      "Ġcaterpill": 2907,
      "ipp": 2908,
      "ject": 2909,
      "Ġpil": 2910,
      "ork": 2911,
      "oof": 2912,
      "Ġexcitedly": 2913,
      "Ġtape": 2914,
      "ÅĵYes": 2915,
      "ÅĵWhat": 2916,
      "Ġenjoying": 2917,
      "Ġcrown": 2918,
      "Ġdesk": 2919,
      "Ġlegs": 2920,
      "Ġmanaged": 2921,
      "Ġmedicine": 2922,
      "How": 2923,
      "bin": 2924,
      "eorge": 2925,
      "Ġsighed": 2926,
      "Ġcam": 2927,
      "Ġonce": 2928,
      "Their": 2929,
      "!\".": 2930,
      "Ġspend": 2931,
      "asing": 2932,
      "Ġexcla": 2933,
      "Ġclear": 2934,
      "Ġadventur": 2935,
      "Ġpainted": 2936,
      "Ġdiffic": 2937,
      "Ġtries": 2938,
      "Ġrelax": 2939,
      "Ġcactus": 2940,
      "Ġcabin": 2941,
      "Ġpacked": 2942,
      "Ġcarrots": 2943,
      "Ġbelonged": 2944,
      "Ġdelighted": 2945,
      "Ġangel": 2946,
      "Ġtunnel": 2947,
      "Ġterrible": 2948,
      "Ġwealthy": 2949,
      "Ġincredible": 2950,
      "Ġcaterpillar": 2951,
      "Ġexclaimed": 2952,
      "hip": 2953,
      "kin": 2954,
      "mb": 2955,
      "ps": 2956,
      "ĠZ": 2957,
      "ately": 2958,
      "ony": 2959,
      "Ġputs": 2960,
      "Ġchoose": 2961,
      "uddy": 2962,
      "ĠDucky": 2963,
      "oby": 2964,
      "Ġneeds": 2965,
      "Ġeye": 2966,
      "Ġusing": 2967,
      "Ġbushes": 2968,
      "eez": 2969,
      "Ġorganized": 2970,
      "Ġsafely": 2971,
      "ĠLeo": 2972,
      "Ġeraser": 2973,
      "Ġmirror": 2974,
      "Ġadventurous": 2975,
      "ique": 2976,
      "Ġdizzy": 2977,
      "ator": 2978,
      "ano": 2979,
      "Ġrat": 2980,
      "ĠAlice": 2981,
      "umsy": 2982,
      "Ġcarp": 2983,
      "Ġflash": 2984,
      "Ġunique": 2985,
      "ache": 2986,
      "Ġsquare": 2987,
      "Ġdrop": 2988,
      "Ġprint": 2989,
      "Ġmistake": 2990,
      "Ġscarf": 2991,
      "Ġcamera": 2992,
      "Ġdifficult": 2993,
      "vice": 2994,
      "Ġsugg": 2995,
      "keep": 2996,
      "Ġbody": 2997,
      "Ġseed": 2998,
      "Ġgrumpy": 2999,
      "Ġturkey": 3000,
      "Ġfridge": 3001,
      "Ġjog": 3002,
      "Ġwalls": 3003,
      "Ġcrawled": 3004,
      "Ġimpressed": 3005,
      "Me": 3006,
      "und": 3007,
      "uable": 3008,
      "ature": 3009,
      "Ġbridge": 3010,
      "ages": 3011,
      "Ġcoins": 3012,
      "ĠFr": 3013,
      "Ġpebble": 3014,
      "Ġtrop": 3015,
      "Ġenvel": 3016,
      "ĠCl": 3017,
      "Ġbrightly": 3018,
      "Ġprep": 3019,
      "umbled": 3020,
      "Ġstudy": 3021,
      "ÅĵLetÃ¢": 3022,
      "keeper": 3023,
      "ha": 3024,
      "loo": 3025,
      "uz": 3026,
      "work": 3027,
      "head": 3028,
      "Ġaw": 3029,
      "Ġbitter": 3030,
      "ready": 3031,
      "ery": 3032,
      "Ġbees": 3033,
      "Ġweird": 3034,
      "Ġdolp": 3035,
      "Ġalready": 3036,
      "Ġword": 3037,
      "Ġabove": 3038,
      "Ġcleaned": 3039,
      "Ġdead": 3040,
      "ĠTweetie": 3041,
      "Ġfinger": 3042,
      "Ġvaluable": 3043,
      "Are": 3044,
      "Ġadded": 3045,
      "Ġoat": 3046,
      "aroo": 3047,
      "etit": 3048,
      "Ġrare": 3049,
      "Ġkissed": 3050,
      "inde": 3051,
      "Ġboys": 3052,
      "Ġgets": 3053,
      "Ġgrand": 3054,
      "Ġskin": 3055,
      "Ġprince": 3056,
      "Ġdelicate": 3057,
      "Ġgiving": 3058,
      "angaroo": 3059,
      "ola": 3060,
      "Ġbottom": 3061,
      "umbers": 3062,
      "Ġpractice": 3063,
      "Ġcarpet": 3064,
      "Ġtrophy": 3065,
      "Alice": 3066,
      "Ġtask": 3067,
      "Ġbake": 3068,
      "Ġmis": 3069,
      "Ġpan": 3070,
      "Ġkangaroo": 3071,
      "Ġknife": 3072,
      "Ġscare": 3073,
      "Ġmov": 3074,
      "Ġmole": 3075,
      "Ġcompetit": 3076,
      "olog": 3077,
      "Ġmixed": 3078,
      "Ġstraw": 3079,
      "Ġenvelope": 3080,
      "Ġtoug": 3081,
      "Ġfool": 3082,
      "Ġgate": 3083,
      "ilty": 3084,
      "anged": 3085,
      "Ġrich": 3086,
      "ĠBl": 3087,
      "Ġrefused": 3088,
      "Ġballs": 3089,
      "Ġsunfl": 3090,
      "Ġgrown": 3091,
      "Ġleaving": 3092,
      "Ġdreaming": 3093,
      "Ġguilty": 3094,
      "Ġapolog": 3095,
      "Ġwrapped": 3096,
      "Ġbubbles": 3097,
      "Ġberries": 3098,
      "Sorry": 3099,
      "yal": 3100,
      "Ġnumbers": 3101,
      "ĠSnow": 3102,
      "Ġsock": 3103,
      "Ġext": 3104,
      "Ġrode": 3105,
      "Ġmeal": 3106,
      "iable": 3107,
      "Ġkinds": 3108,
      "Ġsounded": 3109,
      "Ġreliable": 3110,
      "Ġfis": 3111,
      "ĠSm": 3112,
      "Ġshake": 3113,
      "rag": 3114,
      "Ġloyal": 3115,
      "Ġnod": 3116,
      "Ġnosy": 3117,
      "Ġbranc": 3118,
      "Ġcover": 3119,
      "Ġtwist": 3120,
      "Ġcomb": 3121,
      "Ġadvice": 3122,
      "Ġcloset": 3123,
      "Ġfavour": 3124,
      "Ġneighbour": 3125,
      "Ġescape": 3126,
      "Ġreminded": 3127,
      "Ġfeathers": 3128,
      "Ġsuccessful": 3129,
      "Ġpeeked": 3130,
      "Ġbranches": 3131,
      "rop": 3132,
      "time": 3133,
      "Ġicy": 3134,
      "Ġcries": 3135,
      "Ġmay": 3136,
      "Ġgum": 3137,
      "Ġnumber": 3138,
      "irp": 3139,
      "Ġrushed": 3140,
      "Ġstri": 3141,
      "Ġstairs": 3142,
      "ĠIf": 3143,
      "ĠAl": 3144,
      "Ġclumsy": 3145,
      "Ġskip": 3146,
      "Ġexplored": 3147,
      "Ġoffice": 3148,
      "Ġkindness": 3149,
      "Ġwolf": 3150,
      "Ġteam": 3151,
      "Ġpup": 3152,
      "Ġbald": 3153,
      "Ġguess": 3154,
      "Ġinvited": 3155,
      "Ġrecord": 3156,
      "Ġfoolish": 3157,
      "Ġfavourite": 3158,
      "wards": 3159,
      "ĠNo": 3160,
      "Ġborrow": 3161,
      "ets": 3162,
      "elp": 3163,
      "Ġspun": 3164,
      "uring": 3165,
      "arth": 3166,
      "Ġnoisy": 3167,
      "ĠWhile": 3168,
      "Ġdecide": 3169,
      "Ġchain": 3170,
      "Ġbuilt": 3171,
      "Ġloudly": 3172,
      "Ġuseful": 3173,
      "issors": 3174,
      "Ġsolve": 3175,
      "Ġsalad": 3176,
      "Ġtough": 3177,
      "az": 3178,
      "lies": 3179,
      "inal": 3180,
      "Ġdig": 3181,
      "Ġthose": 3182,
      "Ġears": 3183,
      "iginal": 3184,
      "Ġshone": 3185,
      "Ġdove": 3186,
      "rage": 3187,
      "oph": 3188,
      "aul": 3189,
      "Ġoriginal": 3190,
      "arsh": 3191,
      "berry": 3192,
      "Ġresc": 3193,
      "ĠToday": 3194,
      "uggled": 3195,
      "Ġsmoke": 3196,
      "Ġbounce": 3197,
      "Ġbuttons": 3198,
      "Ġdolphin": 3199,
      "Ġextra": 3200,
      "See": 3201,
      "Ġtimes": 3202,
      "Ġsna": 3203,
      "Ġhunt": 3204,
      "Ġdull": 3205,
      "Ġpay": 3206,
      "ates": 3207,
      "Ġham": 3208,
      "Ġeld": 3209,
      "Ġjack": 3210,
      "Ġjelly": 3211,
      "Ġscissors": 3212,
      "Ġotter": 3213,
      "Ġlearning": 3214,
      "Ġoffered": 3215,
      "ĠRed": 3216,
      "body": 3217,
      "ĠGrandpa": 3218,
      "Ġattic": 3219,
      "Ġflute": 3220,
      "Ġpirate": 3221,
      "Ġsunflower": 3222,
      "com": 3223,
      "gu": 3224,
      "Ġsug": 3225,
      "anger": 3226,
      "Ġstream": 3227,
      "ention": 3228,
      "Ġrep": 3229,
      "Ġsell": 3230,
      "Ġgrandpa": 3231,
      "apa": 3232,
      "urtle": 3233,
      "Ġfamous": 3234,
      "host": 3235,
      "Ġthinking": 3236,
      "Ġcelebrate": 3237,
      "Ġbanana": 3238,
      "Ġsuggested": 3239,
      "ĠSmith": 3240,
      "Help": 3241,
      "cus": 3242,
      "Ġwand": 3243,
      "ress": 3244,
      "Ġfre": 3245,
      "Ġcone": 3246,
      "Ġcorn": 3247,
      "Ġcamp": 3248,
      "ĠSandy": 3249,
      "Ġcoco": 3250,
      "Ġtrump": 3251,
      "Ġshowing": 3252,
      "Ġmoder": 3253,
      "Ġslipped": 3254,
      "Ġboxes": 3255,
      "eeze": 3256,
      "Ġsearching": 3257,
      "Ġcheerful": 3258,
      "Ġgasped": 3259,
      "Ġflashlight": 3260,
      "Ġcocoa": 3261,
      "Re": 3262,
      "cing": 3263,
      "fast": 3264,
      "Ġwire": 3265,
      "Ġload": 3266,
      "Ġleop": 3267,
      "opus": 3268,
      "Ġbirdie": 3269,
      "Ġvi": 3270,
      "Ġhandle": 3271,
      "Ġending": 3272,
      "ctopus": 3273,
      "Ġglass": 3274,
      "ĠPolly": 3275,
      "Ġwarned": 3276,
      "Ġbags": 3277,
      "Ġfruits": 3278,
      "Ġmodern": 3279,
      "het": 3280,
      "Ġtiger": 3281,
      "Ġoctopus": 3282,
      "ote": 3283,
      "Ġbeet": 3284,
      "Ġplayful": 3285,
      "Ġchanged": 3286,
      "Ġcareless": 3287,
      "istent": 3288,
      "Ġproudly": 3289,
      "Ġhurts": 3290,
      "Ġfright": 3291,
      "Ġlights": 3292,
      "Ġhats": 3293,
      "Ġsailor": 3294,
      "Ġbreakfast": 3295,
      "Ġdesign": 3296,
      "Ġlifted": 3297,
      "Ġspeed": 3298,
      "Ġregular": 3299,
      "Ġbossy": 3300,
      "ĠSnowy": 3301,
      "Ġsugar": 3302,
      "Ġtrumpet": 3303,
      "Mary": 3304,
      "af": 3305,
      "Ġghost": 3306,
      "Ġstumbled": 3307,
      "Ġhappiness": 3308,
      "Ġsaying": 3309,
      "Ġchar": 3310,
      "ĠDave": 3311,
      "Ġpost": 3312,
      "Ġknows": 3313,
      "Ġpicks": 3314,
      "Here": 3315,
      "Ġzipper": 3316,
      "Ġrubbed": 3317,
      "Ġbatter": 3318,
      "Ġobject": 3319,
      "Ġquestion": 3320,
      "Ġserious": 3321,
      "Ġhurry": 3322,
      "Ġharmless": 3323,
      "Sp": 3324,
      "xe": 3325,
      "Ġturtle": 3326,
      "Ġaxe": 3327,
      "Ġmap": 3328,
      "ĠToby": 3329,
      "Ġgem": 3330,
      "Ġyog": 3331,
      "Ġforth": 3332,
      "ĠMark": 3333,
      "Ġspag": 3334,
      "Ġlean": 3335,
      "Ġleash": 3336,
      "Ġchase": 3337,
      "Ġyours": 3338,
      "ĠFred": 3339,
      "Ġthoughtful": 3340,
      "Ġsorts": 3341,
      "Ġarrow": 3342,
      "ipe": 3343,
      "ĠPe": 3344,
      "Ġwrote": 3345,
      "Ġunk": 3346,
      "Ġbelt": 3347,
      "Ġcooking": 3348,
      "hetti": 3349,
      "Ġspaghetti": 3350,
      "cou": 3351,
      "cope": 3352,
      "nown": 3353,
      "Ġtummy": 3354,
      "Ġhive": 3355,
      "Ġhipp": 3356,
      "erable": 3357,
      "Ġoy": 3358,
      "seum": 3359,
      "ĠMy": 3360,
      "Ġisland": 3361,
      "Ġlose": 3362,
      "Ġalert": 3363,
      "Ġstranger": 3364,
      "Ġbeauty": 3365,
      "Ġraced": 3366,
      "Ġfier": 3367,
      "âĤ¬âĢ": 3368,
      "Ġharder": 3369,
      "ĠWhenever": 3370,
      "Ġtelling": 3371,
      "Ġsett": 3372,
      "Ġdoesn": 3373,
      "Ġshoot": 3374,
      "Ġpale": 3375,
      "Ġcircle": 3376,
      "ĠRex": 3377,
      "Ġcandle": 3378,
      "Ġgraceful": 3379,
      "Ġmiserable": 3380,
      "ĠBlue": 3381,
      "Ġelderly": 3382,
      "Ġfresh": 3383,
      "Ġaunt": 3384,
      "Ġbin": 3385,
      "Ġfountain": 3386,
      "Ġcell": 3387,
      "Ġpant": 3388,
      "orant": 3389,
      "oop": 3390,
      "ugged": 3391,
      "Ġlocked": 3392,
      "Ġchose": 3393,
      "Ġraven": 3394,
      "Ġcleaning": 3395,
      "Ġperm": 3396,
      "Ġwiped": 3397,
      "Ġmuseum": 3398,
      "Ġchicken": 3399,
      "Ġmovie": 3400,
      "Ġhippo": 3401,
      "Ġfierce": 3402,
      "fa": 3403,
      "iv": 3404,
      "ipping": 3405,
      "ither": 3406,
      "Ġnorm": 3407,
      "imney": 3408,
      "irit": 3409,
      "Ġrice": 3410,
      "Ġroof": 3411,
      "Ġmoms": 3412,
      "Ġliz": 3413,
      "Ġkitty": 3414,
      "Ġloll": 3415,
      "Ġthemselves": 3416,
      "Ġscreen": 3417,
      "Ġchimney": 3418,
      "ĠEventually": 3419,
      "bborn": 3420,
      "Ġtele": 3421,
      "Ġuncom": 3422,
      "Ġtrains": 3423,
      "Ġpatch": 3424,
      "ĠGrace": 3425,
      "oomy": 3426,
      "Ġpersistent": 3427,
      "Ġcarrying": 3428,
      "Ġstubborn": 3429,
      "Ġnuts": 3430,
      "Ġprize": 3431,
      "Ġfrightened": 3432,
      "bled": 3433,
      "Ġsudden": 3434,
      "Ġcudd": 3435,
      "Ġwashed": 3436,
      "Ġmask": 3437,
      "omed": 3438,
      "Ġgoose": 3439,
      "Ġreinde": 3440,
      "Ġhelps": 3441,
      "ĠdonÃ¢": 3442,
      "emo": 3443,
      "ipop": 3444,
      "Ġstove": 3445,
      "Ġmaze": 3446,
      "Ġrestaur": 3447,
      "Ġsuit": 3448,
      "Ġshape": 3449,
      "Ġadmired": 3450,
      "Ġignorant": 3451,
      "Ġfilm": 3452,
      "Ġmicrop": 3453,
      "Ġcricket": 3454,
      "Ġlollipop": 3455,
      "Ġuncomfortable": 3456,
      "Ġrestaurant": 3457,
      "Ġmicrophone": 3458,
      "render": 3459,
      "Ġled": 3460,
      "Ġpump": 3461,
      "Ġthief": 3462,
      "ĠBella": 3463,
      "Ġshut": 3464,
      "Ġfriendship": 3465,
      "Ġvan": 3466,
      "Ġbloom": 3467,
      "Ġshows": 3468,
      "Ġenorm": 3469,
      "Ġhanded": 3470,
      "Ġcomfort": 3471,
      "Ġsniff": 3472,
      "Ġways": 3473,
      "ĠPapa": 3474,
      "Ġplaced": 3475,
      "Ġimagined": 3476,
      "Ġspoke": 3477,
      "Ġunknown": 3478,
      "Ġnormal": 3479,
      "Ġreindeer": 3480,
      "Ġenormous": 3481,
      "gust": 3482,
      "ĠOK": 3483,
      "Ġtie": 3484,
      "Ġtied": 3485,
      "Ġtire": 3486,
      "ines": 3487,
      "Ġhous": 3488,
      "Ġwake": 3489,
      "Ġped": 3490,
      "Ġpurse": 3491,
      "Ġgym": 3492,
      "Ġspirit": 3493,
      "Ġlaund": 3494,
      "Ġpepper": 3495,
      "Ġencou": 3496,
      "Ġbeak": 3497,
      "ĠBobo": 3498,
      "Ġdisgust": 3499,
      "Ġrub": 3500,
      "Ġbutterflies": 3501,
      "Ġdreams": 3502,
      "Ġdreamed": 3503,
      "Ġmetal": 3504,
      "Ġmixer": 3505,
      "Ġsurrender": 3506,
      "Ġwhisp": 3507,
      "Ġmodest": 3508,
      "ĠBrown": 3509,
      "Ġleopard": 3510,
      "Ġhouses": 3511,
      "Ġahead": 3512,
      "inary": 3513,
      "Ġbet": 3514,
      "Ġcity": 3515,
      "anny": 3516,
      "Ġwhale": 3517,
      "Ġref": 3518,
      "illa": 3519,
      "ĠYour": 3520,
      "Ġcompl": 3521,
      "Ġtrash": 3522,
      "Ġrubb": 3523,
      "Ġshopkeeper": 3524,
      "Ġpackage": 3525,
      "Ġparade": 3526,
      "arian": 3527,
      "Ġviol": 3528,
      "Ġbeetle": 3529,
      "Ġlizard": 3530,
      "While": 3531,
      "ext": 3532,
      "gn": 3533,
      "pid": 3534,
      "year": 3535,
      "ĠU": 3536,
      "heart": 3537,
      "Ġlow": 3538,
      "Ġins": 3539,
      "Ġur": 3540,
      "ict": 3541,
      "Ġmem": 3542,
      "ellig": 3543,
      "Ġagainst": 3544,
      "Ġswe": 3545,
      "Ġintellig": 3546,
      "Ġquite": 3547,
      "apping": 3548,
      "Ġballoons": 3549,
      "Ġcounted": 3550,
      "Ġcounting": 3551,
      "ggy": 3552,
      "gging": 3553,
      "Ġpotato": 3554,
      "Ġjuicy": 3555,
      "Ġstupid": 3556,
      "Ġcrayon": 3557,
      "Ġreturn": 3558,
      "ĠMaria": 3559,
      "Ġjacket": 3560,
      "Spot": 3561,
      "Ġlaundry": 3562,
      "Ġwhispered": 3563,
      "cil": 3564,
      "dge": 3565,
      "gest": 3566,
      "hood": 3567,
      "Ġind": 3568,
      "Ġhay": 3569,
      "Ġharsh": 3570,
      "Ġcomet": 3571,
      "Ġmelt": 3572,
      "iron": 3573,
      "Ġstat": 3574,
      "Ġstamp": 3575,
      "una": 3576,
      "Ġlicked": 3577,
      "Ġshocked": 3578,
      "aled": 3579,
      "Ġbiggest": 3580,
      "Ġscrew": 3581,
      "Ġsadly": 3582,
      "Ġhose": 3583,
      "Ġpeek": 3584,
      "ĠcouldnÃ¢": 3585,
      "Ġenv": 3586,
      "berries": 3587,
      "Ġlouder": 3588,
      "ĠGeorge": 3589,
      "Ġjoined": 3590,
      "Ġmagn": 3591,
      "Ġrules": 3592,
      "ĠJoey": 3593,
      "Ġcreate": 3594,
      "Ġguard": 3595,
      "Ġpencil": 3596,
      "Ġmailbox": 3597,
      "Ġsurf": 3598,
      "Ġdiscover": 3599,
      "Ġkicked": 3600,
      "Ġfingers": 3601,
      "Ġeggs": 3602,
      "Ġhelm": 3603,
      "Ġviolin": 3604,
      "cream": 3605,
      "corn": 3606,
      "hroom": 3607,
      "Ġbent": 3608,
      "Ġmama": 3609,
      "ath": 3610,
      "Ġnature": 3611,
      "Ġthirst": 3612,
      "Ġearth": 3613,
      "Ġshine": 3614,
      "Ġshadow": 3615,
      "Ġreco": 3616,
      "ĠMike": 3617,
      "Ġspilled": 3618,
      "Ġscale": 3619,
      "ĠWould": 3620,
      "Ġagree": 3621,
      "Ġlearnt": 3622,
      "ĠRose": 3623,
      "Ġmushroom": 3624,
      "Ġhung": 3625,
      "Ġrolling": 3626,
      "Ġsparkled": 3627,
      "osie": 3628,
      "Ġcupboard": 3629,
      "Ġpopcorn": 3630,
      "Ġshells": 3631,
      "Ġdestro": 3632,
      "Ġoyster": 3633,
      "Ġintelligent": 3634,
      "Ġstatue": 3635,
      "eve": 3636,
      "loe": 3637,
      "Ġing": 3638,
      "Ġfrag": 3639,
      "Ġpow": 3640,
      "Ġstation": 3641,
      "Ġlibr": 3642,
      "Ġshaking": 3643,
      "Ġjolly": 3644,
      "Ġspace": 3645,
      "ummer": 3646,
      "Ġroared": 3647,
      "Ġcost": 3648,
      "Ġtrack": 3649,
      "Ġunpack": 3650,
      "Ġsweetheart": 3651,
      "Ġcourage": 3652,
      "Ġlaughs": 3653,
      "Ġcomplet": 3654,
      "redient": 3655,
      "Ġgrowing": 3656,
      "Ġmissing": 3657,
      "Ġpilot": 3658,
      "eezed": 3659,
      "Ġindepend": 3660,
      "Ġthirsty": 3661,
      "Ġingredient": 3662,
      "Yay": 3663,
      "oot": 3664,
      "pes": 3665,
      "uel": 3666,
      "ye": 3667,
      "Ġson": 3668,
      "Ġbump": 3669,
      "Ġhook": 3670,
      "Ġfine": 3671,
      "erry": 3672,
      "Ġph": 3673,
      "atter": 3674,
      "ĠitÃ¢": 3675,
      "Ġstared": 3676,
      "Ġsofa": 3677,
      "Ġvide": 3678,
      "Ġimpro": 3679,
      "Ġpushing": 3680,
      "ations": 3681,
      "Ġcompass": 3682,
      "Ġfalls": 3683,
      "Ġcolours": 3684,
      "Ġtroubled": 3685,
      "Ġorganize": 3686,
      "ĠRemy": 3687,
      "Ġtwirled": 3688,
      "achel": 3689,
      "Ġcompetitive": 3690,
      "Ġdisgusting": 3691,
      "Ġrecogn": 3692,
      "ience": 3693,
      "par": 3694,
      "ubby": 3695,
      "Ġfour": 3696,
      "Ġlamp": 3697,
      "ĠTed": 3698,
      "Ġsauce": 3699,
      "Ġnail": 3700,
      "Ġitself": 3701,
      "stairs": 3702,
      "ĠBaby": 3703,
      "Ġtools": 3704,
      "Ġsepar": 3705,
      "Ġchubby": 3706,
      "Ġpole": 3707,
      "Ġtwig": 3708,
      "Ġeng": 3709,
      "sely": 3710,
      "Ġframe": 3711,
      "Ġpainter": 3712,
      "Ġjokes": 3713,
      "ĠNemo": 3714,
      "Ġreading": 3715,
      "Ġpoint": 3716,
      "Ġpengu": 3717,
      "Ġattract": 3718,
      "Ġspinning": 3719,
      "Ġdestroy": 3720,
      "Ġingredients": 3721,
      "ikes": 3722,
      "oppy": 3723,
      "yer": 3724,
      "Ġwitch": 3725,
      "Ġcush": 3726,
      "Ġol": 3727,
      "atch": 3728,
      "Ġnurse": 3729,
      "Ġyet": 3730,
      "Ġyaw": 3731,
      "ĠBu": 3732,
      "Ġshort": 3733,
      "Ġrepe": 3734,
      "Ġkay": 3735,
      "tern": 3736,
      "ĠAlex": 3737,
      "iew": 3738,
      "Ġview": 3739,
      "uct": 3740,
      "Ġnicely": 3741,
      "Ġunl": 3742,
      "Ġtravel": 3743,
      "Ġdrawer": 3744,
      "Ġsecond": 3745,
      "Ġbarber": 3746,
      "Ġearly": 3747,
      "Ġordinary": 3748,
      "Ġpants": 3749,
      "Ġhelmet": 3750,
      "Ġphot": 3751,
      "Little": 3752,
      "med": 3753,
      "noon": 3754,
      "Ġflex": 3755,
      "ĠTr": 3756,
      "ison": 3757,
      "Ġhero": 3758,
      "amond": 3759,
      "elery": 3760,
      "Ġrece": 3761,
      "Ġreve": 3762,
      "alk": 3763,
      "Ġnotice": 3764,
      "ecause": 3765,
      "ĠWhere": 3766,
      "play": 3767,
      "Ġsword": 3768,
      "Ġclosely": 3769,
      "Ġcheap": 3770,
      "Ġarg": 3771,
      "Ġimpat": 3772,
      "Ġdisplay": 3773,
      "Ġafternoon": 3774,
      "Ġsandc": 3775,
      "Ġresist": 3776,
      "Ġenth": 3777,
      "Ġpassport": 3778,
      "Ġfolder": 3779,
      "Ġlawyer": 3780,
      "Ġdiamond": 3781,
      "Grandma": 3782,
      "Ġspoiled": 3783,
      "Ġfrowned": 3784,
      "Ġsilver": 3785,
      "uzzy": 3786,
      "ophie": 3787,
      "Ġcharming": 3788,
      "Ġfragile": 3789,
      "Ġindependent": 3790,
      "shed": 3791,
      "Ġbase": 3792,
      "Ġhoop": 3793,
      "Ġfuel": 3794,
      "Ġdive": 3795,
      "Ġpit": 3796,
      "orilla": 3797,
      "ric": 3798,
      "ĠLook": 3799,
      "Ġhadn": 3800,
      "ĠBuddy": 3801,
      "Ġanx": 3802,
      "Ġjet": 3803,
      "ĠJul": 3804,
      "Ġallowed": 3805,
      "Ġmeas": 3806,
      "Ġchasing": 3807,
      "Ġfinding": 3808,
      "Ġsunset": 3809,
      "Ġcats": 3810,
      "Ġneedle": 3811,
      "Ġart": 3812,
      "ĠRosie": 3813,
      "Ġlistening": 3814,
      "Ġzeb": 3815,
      "Ġhairy": 3816,
      "Ġshoe": 3817,
      "Ġvisited": 3818,
      "Ġtreasures": 3819,
      "Ġdistant": 3820,
      "Ġpracticed": 3821,
      "Ġtomato": 3822,
      "Ġadmire": 3823,
      "Ġdecorate": 3824,
      "Ġseeds": 3825,
      "Ġcompassion": 3826,
      "Ġimpatient": 3827,
      "Ġenthus": 3828,
      "Ġzebra": 3829,
      "Ġiron": 3830,
      "Ġsize": 3831,
      "Ġtoil": 3832,
      "Ġcards": 3833,
      "Ġdess": 3834,
      "Ġmill": 3835,
      "Ġmild": 3836,
      "llie": 3837,
      "ĠIÃ¢": 3838,
      "ĠBet": 3839,
      "Ġshiver": 3840,
      "Ġshield": 3841,
      "ills": 3842,
      "Ġscatter": 3843,
      "Ġtrunk": 3844,
      "ÅĵYou": 3845,
      "ĠAndy": 3846,
      "Ġsleeping": 3847,
      "ĠKate": 3848,
      "Ġgiggle": 3849,
      "Ġwrap": 3850,
      "Ġstretch": 3851,
      "Ġpoured": 3852,
      "Ġenvious": 3853,
      "Ġattractive": 3854,
      "Ġflexible": 3855,
      "Ġtoilet": 3856,
      "ci": 3857,
      "Ġsummer": 3858,
      "ince": 3859,
      "ision": 3860,
      "Ġgorilla": 3861,
      "Ġhalf": 3862,
      "ĠLola": 3863,
      "Ġknock": 3864,
      "Ġstarting": 3865,
      "ucked": 3866,
      "Ġanywhere": 3867,
      "Ġener": 3868,
      "Ġsne": 3869,
      "Ġtowers": 3870,
      "Ġpattern": 3871,
      "Ġstops": 3872,
      "Ġsteal": 3873,
      "Ġdriving": 3874,
      "Ġwindows": 3875,
      "Ġsplit": 3876,
      "Ġvend": 3877,
      "Ġcreatures": 3878,
      "Ġshrimp": 3879,
      "Ġburn": 3880,
      "Ġhumble": 3881,
      "Ġriding": 3882,
      "Ġavo": 3883,
      "ÅĵItÃ¢": 3884,
      "Ġanxious": 3885,
      "Ġdessert": 3886,
      "Ġtem": 3887,
      "Ġsend": 3888,
      "Ġtheater": 3889,
      "Ġcro": 3890,
      "erc": 3891,
      "indy": 3892,
      "iches": 3893,
      "Ġstarts": 3894,
      "used": 3895,
      "Ġolder": 3896,
      "ĠEverything": 3897,
      "Ġmeans": 3898,
      "Ġtrick": 3899,
      "Ġpretending": 3900,
      "Ġpapers": 3901,
      "Ġcrazy": 3902,
      "Ġmarched": 3903,
      "Ġsuper": 3904,
      "Ġexper": 3905,
      "Ġfootball": 3906,
      "Ġfilthy": 3907,
      "Ġstretched": 3908,
      "Ġrescue": 3909,
      "Ġengine": 3910,
      "aid": 3911,
      "ef": 3912,
      "under": 3913,
      "Ġsym": 3914,
      "reci": 3915,
      "Ġfurt": 3916,
      "Ġsaus": 3917,
      "une": 3918,
      "Ġshade": 3919,
      "Ġisn": 3920,
      "Ġspell": 3921,
      "Ġknob": 3922,
      "ĠWh": 3923,
      "Ġfactor": 3924,
      "Ġlab": 3925,
      "robe": 3926,
      "Ġvine": 3927,
      "Ġpoem": 3928,
      "ĠFin": 3929,
      "Ġbrace": 3930,
      "ected": 3931,
      "Ġshouldn": 3932,
      "Ġnowhere": 3933,
      "Ġcryst": 3934,
      "Ġappreci": 3935,
      "Ġsticker": 3936,
      "Ġcrane": 3937,
      "Ġbehave": 3938,
      "Ġcountry": 3939,
      "angle": 3940,
      "Ġbounced": 3941,
      "Ġimpress": 3942,
      "arlie": 3943,
      "Ġinsist": 3944,
      "Ġfactory": 3945,
      "Ch": 3946,
      "Daisy": 3947,
      "iest": 3948,
      "rn": 3949,
      "ron": 3950,
      "Ġcurt": 3951,
      "Ġpad": 3952,
      "ĠTony": 3953,
      "Ġthunder": 3954,
      "ckey": 3955,
      "Ġsoar": 3956,
      "Ġweather": 3957,
      "Ġreef": 3958,
      "Ġsomewhere": 3959,
      "Ġflour": 3960,
      "Ġhockey": 3961,
      "ĠCat": 3962,
      "Ġsnuggled": 3963,
      "Ġglove": 3964,
      "Ġbadly": 3965,
      "Ġdishes": 3966,
      "Ġlightning": 3967,
      "Ġgiven": 3968,
      "Ġspring": 3969,
      "Ġsandwiches": 3970,
      "Ġhuman": 3971,
      "Ġvendor": 3972,
      "Ġcurtain": 3973,
      "Will": 3974,
      "bor": 3975,
      "big": 3976,
      "lid": 3977,
      "night": 3978,
      "ser": 3979,
      "scope": 3980,
      "Ġfan": 3981,
      "Ġcree": 3982,
      "Ġdug": 3983,
      "Ġmuff": 3984,
      "isk": 3985,
      "iling": 3986,
      "Ġnation": 3987,
      "anic": 3988,
      "Ġherb": 3989,
      "uth": 3990,
      "Ġumb": 3991,
      "Ġbeep": 3992,
      "Ġgoal": 3993,
      "Ġjug": 3994,
      "Ġexerc": 3995,
      "ĠAre": 3996,
      "Ġknot": 3997,
      "Ġscold": 3998,
      "roscope": 3999,
      "Ġstrugg": 4000,
      "Ġgrin": 4001,
      "Ġstickers": 4002,
      "Ġbrothers": 4003,
      "Ġswinging": 4004,
      "Ġmicroscope": 4005,
      "Ġwishes": 4006,
      "Ġsoldier": 4007,
      "âĤ¬âĢľ": 4008,
      "Ġkayak": 4009,
      "Ġfurther": 4010,
      "bigail": 4011,
      "Ġumbre": 4012,
      "hic": 4013,
      "lud": 4014,
      "sing": 4015,
      "inarian": 4016,
      "Ġbri": 4017,
      "Ġlend": 4018,
      "Ġcur": 4019,
      "Ġcelery": 4020,
      "ense": 4021,
      "ĠSh": 4022,
      "chanic": 4023,
      "Ġboots": 4024,
      "âĤ¬.": 4025,
      "Ġclapping": 4026,
      "Ġrose": 4027,
      "Ġmechanic": 4028,
      "Ġholid": 4029,
      "Ġtruth": 4030,
      "Ġdisag": 4031,
      "Ġclimbing": 4032,
      "ĠRo": 4033,
      "Ġdrawings": 4034,
      "eterinarian": 4035,
      "Ġvehic": 4036,
      "Ġgifted": 4037,
      "Ġminute": 4038,
      "Ġpopular": 4039,
      "Ġexamine": 4040,
      "Jenny": 4041,
      "Ġoats": 4042,
      "Ġhammer": 4043,
      "Ġpumpkin": 4044,
      "Ġcostum": 4045,
      "Ġsymbo": 4046,
      "Ġumbrella": 4047,
      "Ġholiday": 4048,
      "'.": 4049,
      "Because": 4050,
      "Go": 4051,
      "eath": 4052,
      "ocer": 4053,
      "rise": 4054,
      "was": 4055,
      "zor": 4056,
      "Ġtut": 4057,
      "Ġach": 4058,
      "Ġtoast": 4059,
      "Ġluck": 4060,
      "Ġrhin": 4061,
      "ado": 4062,
      "Ġreward": 4063,
      "reeze": 4064,
      "place": 4065,
      "Ġveterinarian": 4066,
      "Ġclock": 4067,
      "Ġquar": 4068,
      "Ġrazor": 4069,
      "Ġgloomy": 4070,
      "Ġsquash": 4071,
      "Ġforgave": 4072,
      "Ġinclud": 4073,
      "Ġcardboard": 4074,
      "Ġharbor": 4075,
      "Ġsteps": 4076,
      "Ġberry": 4077,
      "Ġfearful": 4078,
      "ÅĵThatÃ¢": 4079,
      "Ġcherry": 4080,
      "Ġdishwas": 4081,
      "Ġhunter": 4082,
      "Ġleaned": 4083,
      "oceros": 4084,
      "Ġrhinoceros": 4085,
      "Ġdishwasher": 4086,
      "Give": 4087,
      "ab": 4088,
      "aff": 4089,
      "io": 4090,
      "ses": 4091,
      "Ġig": 4092,
      "Ġsent": 4093,
      "inking": 4094,
      "Ġfat": 4095
    },
    "merges": [
      [
        "h",
        "e"
      ],
      [
        "Ġ",
        "t"
      ],
      [
        "Ġ",
        "a"
      ],
      [
        "Ġ",
        "s"
      ],
      [
        "Ġ",
        "w"
      ],
      [
        "n",
        "d"
      ],
      [
        "Ġt",
        "he"
      ],
      [
        "e",
        "d"
      ],
      [
        "Ġa",
        "nd"
      ],
      [
        "i",
        "n"
      ],
      [
        "Ġt",
        "o"
      ],
      [
        "Ġ",
        "b"
      ],
      [
        "Ġ",
        "h"
      ],
      [
        "Ġw",
        "a"
      ],
      [
        "r",
        "e"
      ],
      [
        "o",
        "u"
      ],
      [
        "Ġ",
        "f"
      ],
      [
        "i",
        "t"
      ],
      [
        "Ġ",
        "l"
      ],
      [
        "Ġ",
        "c"
      ],
      [
        "Ġ",
        "he"
      ],
      [
        "e",
        "r"
      ],
      [
        "Ġ",
        "d"
      ],
      [
        "Ġwa",
        "s"
      ],
      [
        "Ġ",
        "m"
      ],
      [
        "Ġ",
        "p"
      ],
      [
        "o",
        "m"
      ],
      [
        "Ġ",
        "o"
      ],
      [
        "Ġ",
        "T"
      ],
      [
        "in",
        "g"
      ],
      [
        "a",
        "y"
      ],
      [
        "a",
        "r"
      ],
      [
        "i",
        "s"
      ],
      [
        "Ġ",
        "g"
      ],
      [
        "i",
        "d"
      ],
      [
        "i",
        "l"
      ],
      [
        "a",
        "t"
      ],
      [
        "Ġs",
        "a"
      ],
      [
        "e",
        "n"
      ],
      [
        "Ġ",
        "n"
      ],
      [
        "Ġh",
        "a"
      ],
      [
        "Ġ",
        "S"
      ],
      [
        "a",
        "n"
      ],
      [
        "i",
        "m"
      ],
      [
        "ĠT",
        "he"
      ],
      [
        "o",
        "r"
      ],
      [
        "o",
        "n"
      ],
      [
        "Ġt",
        "h"
      ],
      [
        "Ġ",
        "it"
      ],
      [
        "l",
        "l"
      ],
      [
        "l",
        "e"
      ],
      [
        "e",
        "t"
      ],
      [
        "Ġ",
        "H"
      ],
      [
        "Ġhe",
        "r"
      ],
      [
        "i",
        "r"
      ],
      [
        "o",
        "t"
      ],
      [
        "ĠS",
        "he"
      ],
      [
        "Ġ",
        "in"
      ],
      [
        "ĠH",
        "e"
      ],
      [
        "v",
        "er"
      ],
      [
        "e",
        "s"
      ],
      [
        "o",
        "w"
      ],
      [
        "u",
        "t"
      ],
      [
        "c",
        "k"
      ],
      [
        "Ġ",
        "e"
      ],
      [
        "Ġsa",
        "id"
      ],
      [
        "Ġ",
        "u"
      ],
      [
        "l",
        "d"
      ],
      [
        "Ġ",
        "\""
      ],
      [
        "Ġ",
        "y"
      ],
      [
        "o",
        "o"
      ],
      [
        "i",
        "g"
      ],
      [
        "Ġb",
        "e"
      ],
      [
        "a",
        "m"
      ],
      [
        "Ġ",
        "r"
      ],
      [
        "Ġs",
        "t"
      ],
      [
        "Ġs",
        "he"
      ],
      [
        "c",
        "e"
      ],
      [
        "ĠThe",
        "y"
      ],
      [
        "p",
        "p"
      ],
      [
        "il",
        "y"
      ],
      [
        "O",
        "n"
      ],
      [
        "it",
        "h"
      ],
      [
        "k",
        "e"
      ],
      [
        "Ġw",
        "ith"
      ],
      [
        "Ġ",
        "I"
      ],
      [
        "v",
        "e"
      ],
      [
        "k",
        "ed"
      ],
      [
        "Ġs",
        "o"
      ],
      [
        "Ġo",
        "f"
      ],
      [
        "r",
        "i"
      ],
      [
        "Ġo",
        "n"
      ],
      [
        "Ġh",
        "is"
      ],
      [
        "Ġy",
        "ou"
      ],
      [
        "Ġ",
        "L"
      ],
      [
        "Ġp",
        "l"
      ],
      [
        "Ġd",
        "ay"
      ],
      [
        "ver",
        "y"
      ],
      [
        "n",
        "t"
      ],
      [
        "a",
        "d"
      ],
      [
        "Ġth",
        "at"
      ],
      [
        "Ġu",
        "p"
      ],
      [
        "s",
        "t"
      ],
      [
        "Ġha",
        "d"
      ],
      [
        "Ġpl",
        "ay"
      ],
      [
        "e",
        "l"
      ],
      [
        "Ġthe",
        "y"
      ],
      [
        "Ġm",
        "om"
      ],
      [
        "m",
        "y"
      ],
      [
        "'",
        "s"
      ],
      [
        "Ġw",
        "e"
      ],
      [
        "Ġf",
        "or"
      ],
      [
        "ou",
        "ld"
      ],
      [
        "ĠL",
        "ily"
      ],
      [
        "u",
        "n"
      ],
      [
        "en",
        "t"
      ],
      [
        "it",
        "t"
      ],
      [
        "T",
        "he"
      ],
      [
        "Ġ",
        "B"
      ],
      [
        "he",
        "r"
      ],
      [
        "ou",
        "t"
      ],
      [
        "Ġha",
        "pp"
      ],
      [
        "Ġl",
        "i"
      ],
      [
        "c",
        "h"
      ],
      [
        "Ġs",
        "h"
      ],
      [
        "l",
        "y"
      ],
      [
        "Ġwa",
        "nt"
      ],
      [
        "itt",
        "le"
      ],
      [
        "ou",
        "nd"
      ],
      [
        "im",
        "e"
      ],
      [
        "Ġl",
        "ittle"
      ],
      [
        "a",
        "ll"
      ],
      [
        "Ġt",
        "ime"
      ],
      [
        "e",
        "nd"
      ],
      [
        "Ġ",
        "very"
      ],
      [
        "Ġthe",
        "re"
      ],
      [
        "Ġ",
        "Ċ"
      ],
      [
        "Ġd",
        "o"
      ],
      [
        "Ġw",
        "h"
      ],
      [
        "s",
        "e"
      ],
      [
        "om",
        "e"
      ],
      [
        "Ġs",
        "m"
      ],
      [
        "h",
        "t"
      ],
      [
        "Ġ",
        "re"
      ],
      [
        "a",
        "l"
      ],
      [
        "Ġ",
        "k"
      ],
      [
        "Ġn",
        "e"
      ],
      [
        "Ġb",
        "ig"
      ],
      [
        "Ġa",
        "s"
      ],
      [
        "a",
        "ck"
      ],
      [
        "Ġhapp",
        "y"
      ],
      [
        "ri",
        "end"
      ],
      [
        "Ġf",
        "riend"
      ],
      [
        "Ġn",
        "ot"
      ],
      [
        "Ġb",
        "ut"
      ],
      [
        "Ġsa",
        "w"
      ],
      [
        "Ġa",
        "n"
      ],
      [
        "Ġ",
        "M"
      ],
      [
        "On",
        "e"
      ],
      [
        "r",
        "a"
      ],
      [
        ".",
        "\""
      ],
      [
        "r",
        "y"
      ],
      [
        "'",
        "t"
      ],
      [
        "id",
        "e"
      ],
      [
        "v",
        "ed"
      ],
      [
        "On",
        "ce"
      ],
      [
        "!",
        "\""
      ],
      [
        "ĠI",
        "t"
      ],
      [
        "Ġ",
        "is"
      ],
      [
        "Ġl",
        "oo"
      ],
      [
        "u",
        "g"
      ],
      [
        "a",
        "ke"
      ],
      [
        "t",
        "er"
      ],
      [
        "e",
        "c"
      ],
      [
        "Ġwe",
        "re"
      ],
      [
        "o",
        "re"
      ],
      [
        "Ġl",
        "o"
      ],
      [
        "Ġb",
        "o"
      ],
      [
        "ĠT",
        "im"
      ],
      [
        "ir",
        "l"
      ],
      [
        "Ġup",
        "on"
      ],
      [
        "Ġh",
        "im"
      ],
      [
        "Ġg",
        "irl"
      ],
      [
        "Ġto",
        "o"
      ],
      [
        "ar",
        "d"
      ],
      [
        "Ġwant",
        "ed"
      ],
      [
        "Ġg",
        "o"
      ],
      [
        "Ġ",
        "j"
      ],
      [
        "Ġ",
        "out"
      ],
      [
        "Ġs",
        "e"
      ],
      [
        "Ġsm",
        "il"
      ],
      [
        "f",
        "u"
      ],
      [
        "il",
        "l"
      ],
      [
        "Ġs",
        "p"
      ],
      [
        "he",
        "n"
      ],
      [
        "w",
        "ay"
      ],
      [
        "Ġc",
        "ould"
      ],
      [
        "i",
        "nd"
      ],
      [
        "u",
        "r"
      ],
      [
        "Ġ",
        "J"
      ],
      [
        "Ġa",
        "t"
      ],
      [
        "Ġe",
        "x"
      ],
      [
        "a",
        "in"
      ],
      [
        "Ġthe",
        "m"
      ],
      [
        "Ġ",
        "A"
      ],
      [
        "r",
        "ound"
      ],
      [
        "Ġw",
        "ent"
      ],
      [
        "he",
        "d"
      ],
      [
        "ar",
        "t"
      ],
      [
        "i",
        "c"
      ],
      [
        "Ġd",
        "id"
      ],
      [
        "Ġn",
        "am"
      ],
      [
        "Ġthe",
        "ir"
      ],
      [
        "r",
        "om"
      ],
      [
        "h",
        "ing"
      ],
      [
        "l",
        "p"
      ],
      [
        "Ġa",
        "re"
      ],
      [
        "fu",
        "l"
      ],
      [
        "Ġc",
        "an"
      ],
      [
        "Ġhe",
        "lp"
      ],
      [
        "Ġfriend",
        "s"
      ],
      [
        "u",
        "m"
      ],
      [
        "?",
        "\""
      ],
      [
        "Ġa",
        "ll"
      ],
      [
        "Ġha",
        "ve"
      ],
      [
        "ig",
        "ht"
      ],
      [
        "Ġk",
        "n"
      ],
      [
        "on",
        "e"
      ],
      [
        "Ã",
        "¢"
      ],
      [
        "â",
        "Ĥ"
      ],
      [
        "âĤ",
        "¬"
      ],
      [
        "Ġsmil",
        "ed"
      ],
      [
        "oo",
        "d"
      ],
      [
        "Ġb",
        "ack"
      ],
      [
        "ar",
        "k"
      ],
      [
        "Ġnam",
        "ed"
      ],
      [
        "a",
        "re"
      ],
      [
        "Ġc",
        "l"
      ],
      [
        "Ġas",
        "ked"
      ],
      [
        "Ġf",
        "un"
      ],
      [
        "ou",
        "g"
      ],
      [
        "Ġn",
        "o"
      ],
      [
        "Ġlo",
        "ved"
      ],
      [
        "Ġl",
        "e"
      ],
      [
        "el",
        "t"
      ],
      [
        "ĠB",
        "en"
      ],
      [
        "Ġ",
        "One"
      ],
      [
        "o",
        "p"
      ],
      [
        "Ġa",
        "round"
      ],
      [
        "s",
        "ide"
      ],
      [
        "i",
        "ck"
      ],
      [
        "Ġloo",
        "ked"
      ],
      [
        "Ġs",
        "c"
      ],
      [
        "g",
        "et"
      ],
      [
        "Ġf",
        "elt"
      ],
      [
        "Ġa",
        "l"
      ],
      [
        "am",
        "e"
      ],
      [
        "ĠTim",
        "my"
      ],
      [
        "om",
        "et"
      ],
      [
        "Ġbo",
        "y"
      ],
      [
        "Ġf",
        "e"
      ],
      [
        "Y",
        "ou"
      ],
      [
        "u",
        "re"
      ],
      [
        "Ġb",
        "ir"
      ],
      [
        "ĠT",
        "om"
      ],
      [
        "Ġm",
        "an"
      ],
      [
        "Ġst",
        "art"
      ],
      [
        "Ġto",
        "y"
      ],
      [
        "Ġr",
        "o"
      ],
      [
        "Ġse",
        "e"
      ],
      [
        "Ġm",
        "e"
      ],
      [
        "d",
        "d"
      ],
      [
        "i",
        "ce"
      ],
      [
        "Ġli",
        "ke"
      ],
      [
        "Ġb",
        "r"
      ],
      [
        "Ġw",
        "ould"
      ],
      [
        "a",
        "s"
      ],
      [
        "Ġs",
        "omet"
      ],
      [
        "get",
        "her"
      ],
      [
        "on",
        "g"
      ],
      [
        "Ġbir",
        "d"
      ],
      [
        "Ġs",
        "ome"
      ],
      [
        "re",
        "e"
      ],
      [
        "Ġ",
        "W"
      ],
      [
        "Ġw",
        "or"
      ],
      [
        "k",
        "ing"
      ],
      [
        "Ġa",
        "g"
      ],
      [
        "Ġto",
        "gether"
      ],
      [
        "Ġstart",
        "ed"
      ],
      [
        "a",
        "g"
      ],
      [
        "Ġs",
        "ay"
      ],
      [
        "ing",
        "s"
      ],
      [
        "Ġwh",
        "at"
      ],
      [
        "it",
        "ed"
      ],
      [
        "ad",
        "e"
      ],
      [
        "Ġf",
        "a"
      ],
      [
        "ow",
        "n"
      ],
      [
        ",",
        "\""
      ],
      [
        "Ġsomet",
        "hing"
      ],
      [
        "ar",
        "ed"
      ],
      [
        "i",
        "e"
      ],
      [
        "Ġa",
        "way"
      ],
      [
        "Ġex",
        "c"
      ],
      [
        "Ġr",
        "an"
      ],
      [
        "ou",
        "d"
      ],
      [
        "Ġm",
        "ake"
      ],
      [
        "i",
        "f"
      ],
      [
        "Ġp",
        "ark"
      ],
      [
        "b",
        "le"
      ],
      [
        "h",
        "at"
      ],
      [
        "Ġm",
        "ade"
      ],
      [
        "pp",
        "ed"
      ],
      [
        "ĠB",
        "ut"
      ],
      [
        "Ġc",
        "ar"
      ],
      [
        "Ġf",
        "rom"
      ],
      [
        "Ġc",
        "o"
      ],
      [
        "Ġo",
        "t"
      ],
      [
        "Ġw",
        "hen"
      ],
      [
        "Ġsa",
        "d"
      ],
      [
        "Ġne",
        "w"
      ],
      [
        "Ġl",
        "a"
      ],
      [
        "p",
        "l"
      ],
      [
        "L",
        "ily"
      ],
      [
        "Ġthe",
        "n"
      ],
      [
        "e",
        "ll"
      ],
      [
        "Ġp",
        "r"
      ],
      [
        "Ġag",
        "ain"
      ],
      [
        "u",
        "s"
      ],
      [
        "Ġot",
        "her"
      ],
      [
        "Ġh",
        "ome"
      ],
      [
        "Ġp",
        "ut"
      ],
      [
        "Ġf",
        "ound"
      ],
      [
        "all",
        "y"
      ],
      [
        "Ġwa",
        "l"
      ],
      [
        "oug",
        "ht"
      ],
      [
        "Ġf",
        "l"
      ],
      [
        "es",
        "t"
      ],
      [
        "Ġwh",
        "o"
      ],
      [
        "Ġexc",
        "ited"
      ],
      [
        "e",
        "p"
      ],
      [
        "u",
        "st"
      ],
      [
        "Ġ",
        "You"
      ],
      [
        "Ġplay",
        "ing"
      ],
      [
        "Ġh",
        "ug"
      ],
      [
        "q",
        "u"
      ],
      [
        "Ġg",
        "et"
      ],
      [
        "Ġd",
        "ec"
      ],
      [
        "s",
        "s"
      ],
      [
        "ri",
        "ed"
      ],
      [
        "Ġc",
        "h"
      ],
      [
        "Ġ",
        "E"
      ],
      [
        "ou",
        "s"
      ],
      [
        "Ġg",
        "ood"
      ],
      [
        "Ġs",
        "w"
      ],
      [
        "a",
        "ch"
      ],
      [
        "u",
        "ch"
      ],
      [
        "oo",
        "k"
      ],
      [
        "r",
        "o"
      ],
      [
        "n",
        "y"
      ],
      [
        "Ġth",
        "ings"
      ],
      [
        "u",
        "ck"
      ],
      [
        "Ġg",
        "ot"
      ],
      [
        "Ġ",
        "v"
      ],
      [
        "u",
        "dd"
      ],
      [
        "a",
        "ve"
      ],
      [
        "Ġc",
        "ame"
      ],
      [
        "Ġe",
        "very"
      ],
      [
        "id",
        "ed"
      ],
      [
        "Ġ",
        "D"
      ],
      [
        "Ġdec",
        "ided"
      ],
      [
        "Ġon",
        "e"
      ],
      [
        "Ġb",
        "l"
      ],
      [
        "Ġbe",
        "c"
      ],
      [
        "Ġdo",
        "g"
      ],
      [
        "Ġsc",
        "ared"
      ],
      [
        "Ġd",
        "own"
      ],
      [
        "Ġli",
        "ked"
      ],
      [
        "Ġth",
        "an"
      ],
      [
        "ou",
        "se"
      ],
      [
        "Ġc",
        "are"
      ],
      [
        "Ġt",
        "ree"
      ],
      [
        "Ġfe",
        "el"
      ],
      [
        "b",
        "b"
      ],
      [
        "Ġsay",
        "s"
      ],
      [
        "Ġf",
        "ind"
      ],
      [
        "u",
        "e"
      ],
      [
        "way",
        "s"
      ],
      [
        "Ġyou",
        "r"
      ],
      [
        "a",
        "x"
      ],
      [
        "Ġd",
        "ad"
      ],
      [
        "Ġa",
        "b"
      ],
      [
        "Ġp",
        "o"
      ],
      [
        "ar",
        "a"
      ],
      [
        "is",
        "t"
      ],
      [
        "Ġal",
        "ways"
      ],
      [
        "an",
        "t"
      ],
      [
        "Ġt",
        "a"
      ],
      [
        "Ġ",
        "F"
      ],
      [
        "Ġ",
        "ke"
      ],
      [
        "ou",
        "r"
      ],
      [
        "Ġth",
        "ought"
      ],
      [
        "Ġl",
        "ot"
      ],
      [
        "nd",
        "er"
      ],
      [
        "Ġdid",
        "n"
      ],
      [
        "Ġkn",
        "e"
      ],
      [
        "Ġab",
        "out"
      ],
      [
        "Ġg",
        "ra"
      ],
      [
        "it",
        "e"
      ],
      [
        "Ġo",
        "ld"
      ],
      [
        "Ġtoo",
        "k"
      ],
      [
        "Ġin",
        "t"
      ],
      [
        "Ġm",
        "y"
      ],
      [
        "udd",
        "en"
      ],
      [
        "Ġloo",
        "k"
      ],
      [
        "ec",
        "i"
      ],
      [
        "Ġla",
        "ug"
      ],
      [
        "f",
        "e"
      ],
      [
        "n",
        "ed"
      ],
      [
        "Ġh",
        "o"
      ],
      [
        "Ġout",
        "side"
      ],
      [
        "c",
        "hed"
      ],
      [
        "Ġmom",
        "my"
      ],
      [
        "is",
        "e"
      ],
      [
        "ĠM",
        "om"
      ],
      [
        "es",
        "s"
      ],
      [
        "er",
        "s"
      ],
      [
        "udden",
        "ly"
      ],
      [
        "en",
        "ed"
      ],
      [
        "n",
        "a"
      ],
      [
        "g",
        "ed"
      ],
      [
        "Ġt",
        "ake"
      ],
      [
        "eci",
        "al"
      ],
      [
        "Ġsp",
        "ecial"
      ],
      [
        "Ġtoy",
        "s"
      ],
      [
        "Ġkne",
        "w"
      ],
      [
        "a",
        "p"
      ],
      [
        "Ġp",
        "e"
      ],
      [
        "Ġle",
        "ar"
      ],
      [
        "Ġb",
        "all"
      ],
      [
        "Ġkn",
        "ow"
      ],
      [
        "re",
        "at"
      ],
      [
        "re",
        "t"
      ],
      [
        "Ġm",
        "ore"
      ],
      [
        "f",
        "ter"
      ],
      [
        "Ġan",
        "y"
      ],
      [
        "o",
        "b"
      ],
      [
        "Ġw",
        "ill"
      ],
      [
        "The",
        "y"
      ],
      [
        "i",
        "ve"
      ],
      [
        "Ġs",
        "un"
      ],
      [
        "Ġt",
        "r"
      ],
      [
        "m",
        "a"
      ],
      [
        "Ġc",
        "at"
      ],
      [
        "Ġt",
        "w"
      ],
      [
        "Ġh",
        "ow"
      ],
      [
        "ĠS",
        "am"
      ],
      [
        "v",
        "en"
      ],
      [
        "n",
        "na"
      ],
      [
        "ĠM",
        "ax"
      ],
      [
        "Ġsh",
        "ow"
      ],
      [
        "Ġint",
        "o"
      ],
      [
        "Ġm",
        "uch"
      ],
      [
        "Ġcould",
        "n"
      ],
      [
        "Ġs",
        "k"
      ],
      [
        "Ġ",
        "en"
      ],
      [
        "Ġex",
        "pl"
      ],
      [
        "Ġm",
        "o"
      ],
      [
        "a",
        "u"
      ],
      [
        "is",
        "h"
      ],
      [
        "Ġto",
        "ld"
      ],
      [
        "i",
        "a"
      ],
      [
        "Ġcl",
        "o"
      ],
      [
        "a",
        "nd"
      ],
      [
        "Ġ",
        "qu"
      ],
      [
        "g",
        "e"
      ],
      [
        "an",
        "k"
      ],
      [
        "Å",
        "ĵ"
      ],
      [
        "Ġth",
        "is"
      ],
      [
        "Ġ",
        "if"
      ],
      [
        "Ġin",
        "side"
      ],
      [
        "Ġha",
        "nd"
      ],
      [
        "Ġpr",
        "oud"
      ],
      [
        "Ġro",
        "om"
      ],
      [
        "Ġne",
        "ver"
      ],
      [
        "Ġo",
        "ver"
      ],
      [
        "Ġhe",
        "ard"
      ],
      [
        "Ġh",
        "ouse"
      ],
      [
        "B",
        "ut"
      ],
      [
        "Ġo",
        "p"
      ],
      [
        "Ġs",
        "l"
      ],
      [
        "Ġs",
        "or"
      ],
      [
        "u",
        "c"
      ],
      [
        "ot",
        "her"
      ],
      [
        "Ġg",
        "ave"
      ],
      [
        "i",
        "on"
      ],
      [
        "Ġp",
        "ick"
      ],
      [
        "ĠE",
        "very"
      ],
      [
        "t",
        "y"
      ],
      [
        "Ġo",
        "r"
      ],
      [
        "Ġst",
        "r"
      ],
      [
        "Ġplay",
        "ed"
      ],
      [
        "Ġt",
        "ried"
      ],
      [
        "d",
        "y"
      ],
      [
        "a",
        "ce"
      ],
      [
        "Ġr",
        "un"
      ],
      [
        "in",
        "k"
      ],
      [
        "Ġwa",
        "ter"
      ],
      [
        "o",
        "ll"
      ],
      [
        "au",
        "se"
      ],
      [
        "Ġsm",
        "all"
      ],
      [
        "Ġj",
        "ust"
      ],
      [
        "at",
        "e"
      ],
      [
        "um",
        "p"
      ],
      [
        "ĠJ",
        "o"
      ],
      [
        "Ġwa",
        "t"
      ],
      [
        "Ġ",
        "Ã¢"
      ],
      [
        "b",
        "y"
      ],
      [
        "ot",
        "h"
      ],
      [
        "Ġb",
        "u"
      ],
      [
        "he",
        "re"
      ],
      [
        "Ġe",
        "at"
      ],
      [
        "oug",
        "h"
      ],
      [
        "ĠJ",
        "ack"
      ],
      [
        "Ġhug",
        "ged"
      ],
      [
        "Ġc",
        "om"
      ],
      [
        "Ġsor",
        "ry"
      ],
      [
        "v",
        "ing"
      ],
      [
        "et",
        "ter"
      ],
      [
        "'",
        "m"
      ],
      [
        "Ġc",
        "all"
      ],
      [
        "Ġbec",
        "ause"
      ],
      [
        "il",
        "e"
      ],
      [
        "Ġne",
        "ed"
      ],
      [
        "s",
        "ed"
      ],
      [
        "i",
        "z"
      ],
      [
        "s",
        "el"
      ],
      [
        "ĠS",
        "ara"
      ],
      [
        "h",
        "n"
      ],
      [
        "Ġl",
        "ong"
      ],
      [
        "il",
        "d"
      ],
      [
        "M",
        "om"
      ],
      [
        "Ġof",
        "f"
      ],
      [
        "Ġbe",
        "a"
      ],
      [
        "Ġp",
        "ret"
      ],
      [
        "or",
        "t"
      ],
      [
        "Ġt",
        "ry"
      ],
      [
        "Ġbo",
        "x"
      ],
      [
        "n",
        "ing"
      ],
      [
        "ar",
        "s"
      ],
      [
        "Ġn",
        "ice"
      ],
      [
        "Ġe",
        "ach"
      ],
      [
        "Ġfl",
        "ow"
      ],
      [
        "Ġu",
        "nt"
      ],
      [
        "T",
        "om"
      ],
      [
        "in",
        "e"
      ],
      [
        "Y",
        "es"
      ],
      [
        "v",
        "ent"
      ],
      [
        "Ġlaug",
        "hed"
      ],
      [
        "Ġa",
        "d"
      ],
      [
        "Ġthan",
        "ked"
      ],
      [
        "Ġunt",
        "il"
      ],
      [
        "Ġman",
        "y"
      ],
      [
        "a",
        "k"
      ],
      [
        "ad",
        "y"
      ],
      [
        "Ġbea",
        "ut"
      ],
      [
        "f",
        "t"
      ],
      [
        "im",
        "al"
      ],
      [
        "ĠS",
        "o"
      ],
      [
        "Ġan",
        "imal"
      ],
      [
        "Ġd",
        "on"
      ],
      [
        "e",
        "m"
      ],
      [
        "Ġb",
        "est"
      ],
      [
        "I",
        "t"
      ],
      [
        "o",
        "y"
      ],
      [
        "Ġbe",
        "ar"
      ],
      [
        "Ġ",
        "im"
      ],
      [
        "Ġe",
        "nd"
      ],
      [
        "ĠH",
        "er"
      ],
      [
        "T",
        "h"
      ],
      [
        "Ġe",
        "ven"
      ],
      [
        "Ġk",
        "ind"
      ],
      [
        "p",
        "t"
      ],
      [
        "Ġb",
        "etter"
      ],
      [
        "ur",
        "t"
      ],
      [
        "Ġg",
        "r"
      ],
      [
        "Ġb",
        "y"
      ],
      [
        "g",
        "ry"
      ],
      [
        "Ġr",
        "a"
      ],
      [
        "Ġlear",
        "ned"
      ],
      [
        "ur",
        "p"
      ],
      [
        "Ġg",
        "ard"
      ],
      [
        "Ġgard",
        "en"
      ],
      [
        "ĠW",
        "e"
      ],
      [
        "Ġ",
        "C"
      ],
      [
        "sel",
        "f"
      ],
      [
        "Ġf",
        "i"
      ],
      [
        "Ġd",
        "re"
      ],
      [
        "Ġbeaut",
        "i"
      ],
      [
        "âĤ¬",
        "â"
      ],
      [
        "Ġlot",
        "s"
      ],
      [
        "Ġbeauti",
        "ful"
      ],
      [
        "u",
        "ll"
      ],
      [
        "uc",
        "y"
      ],
      [
        "b",
        "er"
      ],
      [
        "Ġli",
        "ved"
      ],
      [
        "ĠA",
        "nna"
      ],
      [
        "H",
        "e"
      ],
      [
        "ĠH",
        "is"
      ],
      [
        "in",
        "y"
      ],
      [
        "le",
        "w"
      ],
      [
        "Ġsk",
        "y"
      ],
      [
        "Ġb",
        "ra"
      ],
      [
        "Ġc",
        "le"
      ],
      [
        "Ġs",
        "n"
      ],
      [
        "Ġfa",
        "st"
      ],
      [
        "Ġc",
        "he"
      ],
      [
        "Ġwa",
        "y"
      ],
      [
        "Ġcare",
        "ful"
      ],
      [
        "Ġtw",
        "o"
      ],
      [
        "Ġcall",
        "ed"
      ],
      [
        "an",
        "e"
      ],
      [
        "c",
        "t"
      ],
      [
        "Ħ",
        "¢"
      ],
      [
        "âĤ¬â",
        "Ħ¢"
      ],
      [
        "Ġc",
        "ome"
      ],
      [
        "Ġb",
        "oth"
      ],
      [
        "Ġj",
        "ump"
      ],
      [
        "ĠA",
        "nd"
      ],
      [
        "Ġw",
        "o"
      ],
      [
        "a",
        "se"
      ],
      [
        "ĠF",
        "rom"
      ],
      [
        "Ġst",
        "ill"
      ],
      [
        "ec",
        "t"
      ],
      [
        "Ġg",
        "l"
      ],
      [
        "Ġt",
        "e"
      ],
      [
        "Ġlo",
        "ve"
      ],
      [
        "Ġa",
        "r"
      ],
      [
        "Ġh",
        "ard"
      ],
      [
        "v",
        "es"
      ],
      [
        "L",
        "et"
      ],
      [
        "W",
        "hen"
      ],
      [
        "Ġf",
        "am"
      ],
      [
        "Ġl",
        "oud"
      ],
      [
        "Ġc",
        "u"
      ],
      [
        "Ġre",
        "m"
      ],
      [
        "ĠM",
        "ia"
      ],
      [
        "T",
        "im"
      ],
      [
        "Ġl",
        "ist"
      ],
      [
        "Ġst",
        "ay"
      ],
      [
        "W",
        "hat"
      ],
      [
        "ig",
        "h"
      ],
      [
        "i",
        "ed"
      ],
      [
        "Ġd",
        "an"
      ],
      [
        "Ġl",
        "et"
      ],
      [
        "Ġf",
        "in"
      ],
      [
        "Ġco",
        "l"
      ],
      [
        "urp",
        "r"
      ],
      [
        "ĠW",
        "hen"
      ],
      [
        "Ġu",
        "nder"
      ],
      [
        "Ġwal",
        "ked"
      ],
      [
        "Ġs",
        "urpr"
      ],
      [
        "Ġbra",
        "ve"
      ],
      [
        "ĠThe",
        "n"
      ],
      [
        "Ġf",
        "lew"
      ],
      [
        "Ġsa",
        "fe"
      ],
      [
        "Ġit",
        "s"
      ],
      [
        "Ġanimal",
        "s"
      ],
      [
        "Ġso",
        "on"
      ],
      [
        "Ġim",
        "p"
      ],
      [
        "oo",
        "l"
      ],
      [
        "Ġf",
        "ly"
      ],
      [
        "Ġo",
        "w"
      ],
      [
        "Ġexpl",
        "ore"
      ],
      [
        "he",
        "s"
      ],
      [
        "Ġh",
        "urt"
      ],
      [
        "a",
        "st"
      ],
      [
        "Ġto",
        "w"
      ],
      [
        "Ġr",
        "ed"
      ],
      [
        "op",
        "le"
      ],
      [
        "Ġc",
        "on"
      ],
      [
        "Ġdo",
        "ll"
      ],
      [
        "f",
        "ore"
      ],
      [
        "Ġgo",
        "ing"
      ],
      [
        "dd",
        "ed"
      ],
      [
        "is",
        "ed"
      ],
      [
        "Ġb",
        "ad"
      ],
      [
        "um",
        "my"
      ],
      [
        "Ġke",
        "pt"
      ],
      [
        "i",
        "p"
      ],
      [
        "T",
        "hat"
      ],
      [
        "Ġst",
        "o"
      ],
      [
        "is",
        "hed"
      ],
      [
        "Ġsh",
        "ould"
      ],
      [
        "Ġfam",
        "ily"
      ],
      [
        "S",
        "o"
      ],
      [
        "l",
        "ed"
      ],
      [
        "Ġn",
        "ow"
      ],
      [
        "Ġg",
        "round"
      ],
      [
        "Ġp",
        "ic"
      ],
      [
        "ĠL",
        "ucy"
      ],
      [
        "i",
        "es"
      ],
      [
        "Ġst",
        "or"
      ],
      [
        "k",
        "ay"
      ],
      [
        "Ġpe",
        "ople"
      ],
      [
        "Ġ",
        "P"
      ],
      [
        "ag",
        "e"
      ],
      [
        "Ġad",
        "vent"
      ],
      [
        "Ġf",
        "ore"
      ],
      [
        "o",
        "ck"
      ],
      [
        "Ġfeel",
        "ing"
      ],
      [
        "ĠB",
        "ob"
      ],
      [
        "ic",
        "ed"
      ],
      [
        "Ġbe",
        "fore"
      ],
      [
        "Ġc",
        "ry"
      ],
      [
        "Ġre",
        "pl"
      ],
      [
        "N",
        "o"
      ],
      [
        "Ġwal",
        "king"
      ],
      [
        "Ġke",
        "ep"
      ],
      [
        "Ġb",
        "ook"
      ],
      [
        "x",
        "t"
      ],
      [
        "Ġdo",
        "or"
      ],
      [
        "il",
        "ly"
      ],
      [
        "Ġwh",
        "ile"
      ],
      [
        "e",
        "et"
      ],
      [
        "b",
        "e"
      ],
      [
        "Ġw",
        "ind"
      ],
      [
        "t",
        "hing"
      ],
      [
        "Ġsh",
        "are"
      ],
      [
        "Ġd",
        "ra"
      ],
      [
        "Ġsh",
        "iny"
      ],
      [
        "Ġno",
        "dded"
      ],
      [
        "Ġt",
        "ur"
      ],
      [
        "Ġan",
        "gry"
      ],
      [
        "Ġop",
        "ened"
      ],
      [
        "h",
        "y"
      ],
      [
        "Ġ",
        "ide"
      ],
      [
        "ar",
        "y"
      ],
      [
        "t",
        "ing"
      ],
      [
        "Ġpick",
        "ed"
      ],
      [
        "Ġf",
        "r"
      ],
      [
        "Ġe",
        "y"
      ],
      [
        "Ġrepl",
        "ied"
      ],
      [
        "Ġpret",
        "ty"
      ],
      [
        "Ġcle",
        "an"
      ],
      [
        "Ġwa",
        "r"
      ],
      [
        "ĠS",
        "uddenly"
      ],
      [
        "Ġnot",
        "iced"
      ],
      [
        "Ġsto",
        "pped"
      ],
      [
        "g",
        "er"
      ],
      [
        "Ġno",
        "ise"
      ],
      [
        "Ġide",
        "a"
      ],
      [
        "Ġv",
        "o"
      ],
      [
        "j",
        "oy"
      ],
      [
        "Ġf",
        "ar"
      ],
      [
        "Ġth",
        "r"
      ],
      [
        "bb",
        "it"
      ],
      [
        "Ġadvent",
        "ure"
      ],
      [
        "n",
        "er"
      ],
      [
        "Ġro",
        "ck"
      ],
      [
        "t",
        "ed"
      ],
      [
        "Ġre",
        "al"
      ],
      [
        "t",
        "ure"
      ],
      [
        "Ġ",
        "G"
      ],
      [
        "Ġg",
        "reat"
      ],
      [
        "Ġqu",
        "ick"
      ],
      [
        "le",
        "s"
      ],
      [
        "g",
        "an"
      ],
      [
        "Ġw",
        "r"
      ],
      [
        "Ġloo",
        "king"
      ],
      [
        "Ġu",
        "n"
      ],
      [
        "Ġclo",
        "s"
      ],
      [
        "Ġd",
        "is"
      ],
      [
        "f",
        "f"
      ],
      [
        "Ġt",
        "re"
      ],
      [
        "Ġb",
        "ed"
      ],
      [
        "S",
        "uddenly"
      ],
      [
        "i",
        "ous"
      ],
      [
        "Th",
        "ank"
      ],
      [
        "Ġra",
        "bbit"
      ],
      [
        "Ġsmil",
        "e"
      ],
      [
        "Ġf",
        "o"
      ],
      [
        "Ġp",
        "ain"
      ],
      [
        "Ġne",
        "xt"
      ],
      [
        "Ġen",
        "joy"
      ],
      [
        "Ġwa",
        "it"
      ],
      [
        "Ġd",
        "el"
      ],
      [
        "im",
        "b"
      ],
      [
        "ma",
        "z"
      ],
      [
        "Ġa",
        "maz"
      ],
      [
        "em",
        "ber"
      ],
      [
        "Ġtr",
        "uck"
      ],
      [
        "Ġcol",
        "or"
      ],
      [
        "Ġcl",
        "imb"
      ],
      [
        "J",
        "o"
      ],
      [
        "oll",
        "y"
      ],
      [
        "Ġ",
        "R"
      ],
      [
        "Ġy",
        "e"
      ],
      [
        "Ġwo",
        "nder"
      ],
      [
        "Ġm",
        "a"
      ],
      [
        "Ġpic",
        "ture"
      ],
      [
        "an",
        "ge"
      ],
      [
        "ug",
        "ht"
      ],
      [
        "Ġvo",
        "ice"
      ],
      [
        "Ġey",
        "es"
      ],
      [
        "Ġwal",
        "k"
      ],
      [
        "a",
        "ble"
      ],
      [
        "Ġquick",
        "ly"
      ],
      [
        "ĠJo",
        "hn"
      ],
      [
        "Ġa",
        "pp"
      ],
      [
        "a",
        "c"
      ],
      [
        "Ġhand",
        "s"
      ],
      [
        "Ġbe",
        "ing"
      ],
      [
        "Ġa",
        "fter"
      ],
      [
        "Ġr",
        "ight"
      ],
      [
        "Ġm",
        "or"
      ],
      [
        "Ġe",
        "ver"
      ],
      [
        "ĠD",
        "ad"
      ],
      [
        "Ġd",
        "if"
      ],
      [
        "ir",
        "st"
      ],
      [
        "Ġrem",
        "ember"
      ],
      [
        "Ġd",
        "e"
      ],
      [
        "Ġj",
        "o"
      ],
      [
        "Ġwat",
        "ch"
      ],
      [
        "is",
        "y"
      ],
      [
        "Ġsh",
        "out"
      ],
      [
        "Ġwor",
        "k"
      ],
      [
        "Ġg",
        "ive"
      ],
      [
        "Ġf",
        "ish"
      ],
      [
        "Ġth",
        "ree"
      ],
      [
        "o",
        "on"
      ],
      [
        "Ġne",
        "ar"
      ],
      [
        "Ġbr",
        "o"
      ],
      [
        "Ġfore",
        "st"
      ],
      [
        "s",
        "o"
      ],
      [
        "Ġg",
        "re"
      ],
      [
        "Ġstr",
        "ong"
      ],
      [
        "Ġf",
        "ood"
      ],
      [
        "Ġbl",
        "ue"
      ],
      [
        "Ġevery",
        "one"
      ],
      [
        "Ġbe",
        "en"
      ],
      [
        "bb",
        "ed"
      ],
      [
        "Ġclos",
        "er"
      ],
      [
        "Ġt",
        "al"
      ],
      [
        "Ġt",
        "ra"
      ],
      [
        "Ġcu",
        "ri"
      ],
      [
        "by",
        "e"
      ],
      [
        "Ġbec",
        "ame"
      ],
      [
        "ĠS",
        "ue"
      ],
      [
        "Ġal",
        "so"
      ],
      [
        "Ġflow",
        "ers"
      ],
      [
        "re",
        "am"
      ],
      [
        "ĠJ",
        "ane"
      ],
      [
        "Ġimp",
        "ort"
      ],
      [
        "Ġm",
        "um"
      ],
      [
        "Ġy",
        "ell"
      ],
      [
        "Ġlist",
        "en"
      ],
      [
        "ay",
        "be"
      ],
      [
        "B",
        "en"
      ],
      [
        "H",
        "er"
      ],
      [
        "ĠS",
        "p"
      ],
      [
        "Ġpl",
        "ace"
      ],
      [
        "Ġa",
        "c"
      ],
      [
        "er",
        "ed"
      ],
      [
        "Ġr",
        "ain"
      ],
      [
        "Ġwat",
        "ched"
      ],
      [
        "n",
        "g"
      ],
      [
        "Ġ",
        "N"
      ],
      [
        "Ġcuri",
        "ous"
      ],
      [
        "Ġshow",
        "ed"
      ],
      [
        "oll",
        "ow"
      ],
      [
        "d",
        "ay"
      ],
      [
        "Ġu",
        "s"
      ],
      [
        "Ġbe",
        "l"
      ],
      [
        "iz",
        "ed"
      ],
      [
        "Ġu",
        "se"
      ],
      [
        "Ġimport",
        "ant"
      ],
      [
        "Ġs",
        "ound"
      ],
      [
        "Ġs",
        "ure"
      ],
      [
        "Ġs",
        "qu"
      ],
      [
        "Ġhe",
        "ad"
      ],
      [
        "Ġth",
        "ink"
      ],
      [
        "Ġbr",
        "ight"
      ],
      [
        "Ġm",
        "ag"
      ],
      [
        "Ġw",
        "here"
      ],
      [
        "Ġfa",
        "ce"
      ],
      [
        "Ġo",
        "kay"
      ],
      [
        "a",
        "ught"
      ],
      [
        "S",
        "he"
      ],
      [
        "Ġgood",
        "bye"
      ],
      [
        "k",
        "es"
      ],
      [
        "Ġch",
        "ild"
      ],
      [
        "fe",
        "re"
      ],
      [
        "ir",
        "ed"
      ],
      [
        "Ġb",
        "us"
      ],
      [
        "Ġf",
        "ollow"
      ],
      [
        "Ġh",
        "igh"
      ],
      [
        "Ġcon",
        "t"
      ],
      [
        "Ġdif",
        "fere"
      ],
      [
        "a",
        "isy"
      ],
      [
        "Ġhe",
        "re"
      ],
      [
        "Ġp",
        "er"
      ],
      [
        "le",
        "ase"
      ],
      [
        "Ġst",
        "ick"
      ],
      [
        "Ġsl",
        "ide"
      ],
      [
        "L",
        "ook"
      ],
      [
        "Ġf",
        "irst"
      ],
      [
        "il",
        "a"
      ],
      [
        "Ġha",
        "s"
      ],
      [
        "Ġbo",
        "at"
      ],
      [
        "S",
        "ara"
      ],
      [
        "C",
        "an"
      ],
      [
        "ll",
        "y"
      ],
      [
        "ĠMom",
        "my"
      ],
      [
        "Ġb",
        "it"
      ],
      [
        "Ġwar",
        "m"
      ],
      [
        "it",
        "c"
      ],
      [
        "ĠA",
        "s"
      ],
      [
        "Ġst",
        "ore"
      ],
      [
        "Ġc",
        "r"
      ],
      [
        "u",
        "ff"
      ],
      [
        "le",
        "ep"
      ],
      [
        "Ġwor",
        "ld"
      ],
      [
        "Ġh",
        "op"
      ],
      [
        "Ġdre",
        "ss"
      ],
      [
        "Ġg",
        "ame"
      ],
      [
        "Ġn",
        "ight"
      ],
      [
        "Ġbe",
        "gan"
      ],
      [
        "Ġdiffere",
        "nt"
      ],
      [
        "W",
        "e"
      ],
      [
        "m",
        "ore"
      ],
      [
        "Ġany",
        "more"
      ],
      [
        "Ġbut",
        "ter"
      ],
      [
        "Ġme",
        "an"
      ],
      [
        "Ġbe",
        "h"
      ],
      [
        "a",
        "ched"
      ],
      [
        "Ġas",
        "k"
      ],
      [
        "Ġop",
        "en"
      ],
      [
        "Ġ",
        "z"
      ],
      [
        "Ġjump",
        "ed"
      ],
      [
        "ĠSp",
        "ot"
      ],
      [
        "Ġstor",
        "y"
      ],
      [
        "Jo",
        "hn"
      ],
      [
        "nt",
        "s"
      ],
      [
        "Ġflow",
        "er"
      ],
      [
        "z",
        "y"
      ],
      [
        "c",
        "o"
      ],
      [
        "Ġgra",
        "bbed"
      ],
      [
        "Ġfor",
        "g"
      ],
      [
        "Ġfi",
        "re"
      ],
      [
        "Ġa",
        "m"
      ],
      [
        "Ġthr",
        "ough"
      ],
      [
        "im",
        "es"
      ],
      [
        "Ġre",
        "st"
      ],
      [
        "Ġsw",
        "eet"
      ],
      [
        "Ġt",
        "ell"
      ],
      [
        "Ġhapp",
        "ened"
      ],
      [
        "Ġre",
        "ally"
      ],
      [
        "Ġho",
        "pped"
      ],
      [
        "nd",
        "ma"
      ],
      [
        "Ġhelp",
        "ed"
      ],
      [
        "Ġl",
        "ady"
      ],
      [
        "Ġc",
        "ou"
      ],
      [
        "st",
        "er"
      ],
      [
        "Ġfa",
        "v"
      ],
      [
        "Ġp",
        "are"
      ],
      [
        "Ġnam",
        "e"
      ],
      [
        "A",
        "fter"
      ],
      [
        "Ġr",
        "u"
      ],
      [
        "Ġp",
        "at"
      ],
      [
        "Ġ",
        "our"
      ],
      [
        "Ġsa",
        "nd"
      ],
      [
        "Ġshout",
        "ed"
      ],
      [
        "un",
        "ny"
      ],
      [
        "Ġle",
        "a"
      ],
      [
        "Ġbl",
        "ock"
      ],
      [
        "Ġfe",
        "ll"
      ],
      [
        "Ġp",
        "u"
      ],
      [
        "Ġgl",
        "ad"
      ],
      [
        "Ġdra",
        "w"
      ],
      [
        "Ġha",
        "ving"
      ],
      [
        "Ġse",
        "en"
      ],
      [
        "Ġt",
        "ired"
      ],
      [
        "Ġp",
        "ull"
      ],
      [
        "ĠT",
        "h"
      ],
      [
        "Ġon",
        "ly"
      ],
      [
        "ĠL",
        "et"
      ],
      [
        "ĠJo",
        "e"
      ],
      [
        "Ġm",
        "ouse"
      ],
      [
        "A",
        "s"
      ],
      [
        "Ġm",
        "on"
      ],
      [
        "Ġk",
        "itc"
      ],
      [
        "Ġgra",
        "ss"
      ],
      [
        "Ġkitc",
        "hen"
      ],
      [
        "Ġfl",
        "o"
      ],
      [
        "Ġmag",
        "ic"
      ],
      [
        "Ġwh",
        "y"
      ],
      [
        "ĠD",
        "aisy"
      ],
      [
        "fu",
        "lly"
      ],
      [
        "ĠSara",
        "h"
      ],
      [
        "Mom",
        "my"
      ],
      [
        "Ġf",
        "ill"
      ],
      [
        "Ġso",
        "ft"
      ],
      [
        "Ġye",
        "ars"
      ],
      [
        "Ġre",
        "ady"
      ],
      [
        "Ġwor",
        "ry"
      ],
      [
        "Ġf",
        "ro"
      ],
      [
        "Ġre",
        "ached"
      ],
      [
        "'",
        "re"
      ],
      [
        "Ġth",
        "ing"
      ],
      [
        "i",
        "ent"
      ],
      [
        "at",
        "er"
      ],
      [
        "Ġbr",
        "other"
      ],
      [
        "Ġta",
        "st"
      ],
      [
        "Ġd",
        "one"
      ],
      [
        "t",
        "h"
      ],
      [
        "Ġwa",
        "ved"
      ],
      [
        "\"",
        "."
      ],
      [
        "Ġd",
        "in"
      ],
      [
        "u",
        "ed"
      ],
      [
        "as",
        "s"
      ],
      [
        "k",
        "en"
      ],
      [
        "ĠEvery",
        "one"
      ],
      [
        "Ġpare",
        "nts"
      ],
      [
        "Ġc",
        "ake"
      ],
      [
        "at",
        "her"
      ],
      [
        "pp",
        "y"
      ],
      [
        "Ġd",
        "r"
      ],
      [
        "Ġb",
        "a"
      ],
      [
        "el",
        "y"
      ],
      [
        "Ġbird",
        "s"
      ],
      [
        "Ġpo",
        "nd"
      ],
      [
        "Ġfi",
        "x"
      ],
      [
        "Ġbutter",
        "f"
      ],
      [
        "Ġhim",
        "self"
      ],
      [
        "D",
        "on"
      ],
      [
        "Ġsurpr",
        "ise"
      ],
      [
        "Ġk",
        "id"
      ],
      [
        "Ġcom",
        "ing"
      ],
      [
        "a",
        "ir"
      ],
      [
        "w",
        "here"
      ],
      [
        "Ġbeh",
        "ind"
      ],
      [
        "Ġl",
        "ess"
      ],
      [
        "Ġrun",
        "ning"
      ],
      [
        "Ġpr",
        "in"
      ],
      [
        "Ġw",
        "ood"
      ],
      [
        "in",
        "s"
      ],
      [
        "Ġst",
        "op"
      ],
      [
        "u",
        "l"
      ],
      [
        "is",
        "s"
      ],
      [
        "A",
        "nna"
      ],
      [
        "Ġb",
        "re"
      ],
      [
        "J",
        "ack"
      ],
      [
        "Ġ",
        "-"
      ],
      [
        "Ġhapp",
        "ily"
      ],
      [
        "Ġreal",
        "ized"
      ],
      [
        "ard",
        "s"
      ],
      [
        "Ġc",
        "reat"
      ],
      [
        "Ġp",
        "us"
      ],
      [
        "ĠS",
        "ally"
      ],
      [
        "Ġy",
        "ummy"
      ],
      [
        "Ġs",
        "et"
      ],
      [
        "Ġb",
        "unny"
      ],
      [
        "Ġc",
        "ook"
      ],
      [
        "Ġwor",
        "ked"
      ],
      [
        "Ġgre",
        "en"
      ],
      [
        "Ġd",
        "ark"
      ],
      [
        "Ġst",
        "e"
      ],
      [
        "Tim",
        "my"
      ],
      [
        "Ġfav",
        "or"
      ],
      [
        "W",
        "ow"
      ],
      [
        "Ġfro",
        "g"
      ],
      [
        "Ġb",
        "ug"
      ],
      [
        "Ġper",
        "f"
      ],
      [
        "ĠT",
        "hat"
      ],
      [
        "Ġcat",
        "ch"
      ],
      [
        "Ġs",
        "ing"
      ],
      [
        "Ġfavor",
        "ite"
      ],
      [
        "Ġat",
        "e"
      ],
      [
        "i",
        "ke"
      ],
      [
        "Ġunder",
        "st"
      ],
      [
        "Ġdel",
        "ic"
      ],
      [
        "Ġl",
        "ight"
      ],
      [
        "Ġfun",
        "ny"
      ],
      [
        "Ġsw",
        "im"
      ],
      [
        "Ġc",
        "ut"
      ],
      [
        "m",
        "er"
      ],
      [
        "at",
        "ion"
      ],
      [
        "Ġp",
        "rom"
      ],
      [
        "Ġdo",
        "es"
      ],
      [
        "Ġsm",
        "ell"
      ],
      [
        "Ġyell",
        "ow"
      ],
      [
        "Ġcare",
        "fully"
      ],
      [
        "Ġf",
        "ull"
      ],
      [
        "Ġlear",
        "n"
      ],
      [
        "Ġma",
        "king"
      ],
      [
        "Ġto",
        "uch"
      ],
      [
        "Ġu",
        "sed"
      ],
      [
        "Ġp",
        "art"
      ],
      [
        "Ġse",
        "es"
      ],
      [
        "Ġcont",
        "in"
      ],
      [
        "b",
        "o"
      ],
      [
        "Ġsw",
        "ing"
      ],
      [
        "Ġm",
        "ess"
      ],
      [
        "ar",
        "ing"
      ],
      [
        "re",
        "ed"
      ],
      [
        "ĠC",
        "an"
      ],
      [
        "Ġd",
        "uck"
      ],
      [
        "ig",
        "n"
      ],
      [
        "Ġlook",
        "s"
      ],
      [
        "s",
        "h"
      ],
      [
        "S",
        "am"
      ],
      [
        "Ġd",
        "ro"
      ],
      [
        "Ġan",
        "other"
      ],
      [
        "ak",
        "es"
      ],
      [
        "Ġenjoy",
        "ed"
      ],
      [
        "re",
        "l"
      ],
      [
        "Ġt",
        "ri"
      ],
      [
        "Ġremember",
        "ed"
      ],
      [
        "Ġar",
        "ri"
      ],
      [
        "ĠA",
        "fter"
      ],
      [
        "Ġany",
        "thing"
      ],
      [
        "Ġsl",
        "ow"
      ],
      [
        "Ġli",
        "on"
      ],
      [
        "Ġwonder",
        "ful"
      ],
      [
        "Ġto",
        "p"
      ],
      [
        "Ġp",
        "re"
      ],
      [
        "Ġmo",
        "ve"
      ],
      [
        "and",
        "y"
      ],
      [
        "Ġc",
        "ried"
      ],
      [
        "Ġco",
        "ld"
      ],
      [
        "Ġtre",
        "es"
      ],
      [
        "Ġdo",
        "ing"
      ],
      [
        "re",
        "n"
      ],
      [
        "Ġpret",
        "end"
      ],
      [
        "Ġwr",
        "ong"
      ],
      [
        "Ġbutterf",
        "ly"
      ],
      [
        "Ġb",
        "ag"
      ],
      [
        "Ġt",
        "all"
      ],
      [
        "ed",
        "dy"
      ],
      [
        "Ġh",
        "at"
      ],
      [
        "ĠD",
        "o"
      ],
      [
        "one",
        "y"
      ],
      [
        "Ġbu",
        "y"
      ],
      [
        "Ġkid",
        "s"
      ],
      [
        "H",
        "ell"
      ],
      [
        "Ġha",
        "ir"
      ],
      [
        "Ġher",
        "self"
      ],
      [
        "Ġre",
        "l"
      ],
      [
        "Ġho",
        "le"
      ],
      [
        "Hell",
        "o"
      ],
      [
        "Ġb",
        "at"
      ],
      [
        "Ġdre",
        "am"
      ],
      [
        "Ġs",
        "at"
      ],
      [
        "Ġsh",
        "o"
      ],
      [
        "Ġsp",
        "ot"
      ],
      [
        "ĠI",
        "n"
      ],
      [
        "Ġfin",
        "ished"
      ],
      [
        "Ġm",
        "us"
      ],
      [
        "Ġs",
        "leep"
      ],
      [
        "Ġbu",
        "ild"
      ],
      [
        "Ġcontin",
        "ued"
      ],
      [
        "Ġh",
        "ill"
      ],
      [
        "Ġc",
        "ool"
      ],
      [
        "Ġle",
        "ft"
      ],
      [
        "Ġblock",
        "s"
      ],
      [
        "Ġfriend",
        "ly"
      ],
      [
        "'",
        "ll"
      ],
      [
        "Ġd",
        "ri"
      ],
      [
        "Ġm",
        "other"
      ],
      [
        "Ġsurpr",
        "ised"
      ],
      [
        "Ġarri",
        "ved"
      ],
      [
        "Ġfill",
        "ed"
      ],
      [
        "Ġp",
        "ap"
      ],
      [
        "Ġneed",
        "ed"
      ],
      [
        "Ġless",
        "on"
      ],
      [
        "Ġhe",
        "ld"
      ],
      [
        "e",
        "y"
      ],
      [
        "Ġh",
        "id"
      ],
      [
        "ro",
        "om"
      ],
      [
        "in",
        "ally"
      ],
      [
        "ĠE",
        "m"
      ],
      [
        "Ġlo",
        "st"
      ],
      [
        "in",
        "ed"
      ],
      [
        "Ġw",
        "ished"
      ],
      [
        "Ġc",
        "ra"
      ],
      [
        "Ġfa",
        "ir"
      ],
      [
        "Ġwind",
        "ow"
      ],
      [
        "ĠBen",
        "ny"
      ],
      [
        "Ġlaug",
        "h"
      ],
      [
        "Ġchild",
        "ren"
      ],
      [
        "Ġthan",
        "k"
      ],
      [
        "Ġb",
        "ow"
      ],
      [
        "i",
        "ver"
      ],
      [
        "Ġg",
        "ent"
      ],
      [
        "Ġcar",
        "s"
      ],
      [
        "Ġho",
        "ld"
      ],
      [
        "Ġa",
        "ble"
      ],
      [
        "am",
        "a"
      ],
      [
        "as",
        "ure"
      ],
      [
        "ie",
        "ld"
      ],
      [
        "Ġmom",
        "ent"
      ],
      [
        "Ġag",
        "reed"
      ],
      [
        "Ġta",
        "ble"
      ],
      [
        "Ġsn",
        "ow"
      ],
      [
        "en",
        "s"
      ],
      [
        "Ġflo",
        "or"
      ],
      [
        "Ġre",
        "ad"
      ],
      [
        "Ġa",
        "ir"
      ],
      [
        "a",
        "v"
      ],
      [
        "Ġm",
        "at"
      ],
      [
        "Ġ",
        "ice"
      ],
      [
        "Ġget",
        "ting"
      ],
      [
        "Ġmor",
        "ning"
      ],
      [
        "Ġow",
        "n"
      ],
      [
        "Ġtur",
        "n"
      ],
      [
        "Ġen",
        "ough"
      ],
      [
        "Ġclo",
        "se"
      ],
      [
        "H",
        "is"
      ],
      [
        "Ġ",
        "K"
      ],
      [
        "Ġfollow",
        "ed"
      ],
      [
        "Ġy",
        "es"
      ],
      [
        "Ġsome",
        "one"
      ],
      [
        "ro",
        "ss"
      ],
      [
        "Ġpo",
        "in"
      ],
      [
        "Ġtry",
        "ing"
      ],
      [
        "c",
        "ess"
      ],
      [
        "d",
        "s"
      ],
      [
        "ĠThe",
        "re"
      ],
      [
        "Th",
        "is"
      ],
      [
        "i",
        "ch"
      ],
      [
        "ast",
        "le"
      ],
      [
        "Ġt",
        "ight"
      ],
      [
        "Ġfo",
        "x"
      ],
      [
        "F",
        "rom"
      ],
      [
        "Ġm",
        "ar"
      ],
      [
        "The",
        "n"
      ],
      [
        "as",
        "k"
      ],
      [
        "Ġpain",
        "t"
      ],
      [
        "ĠN",
        "ow"
      ],
      [
        "Ġdin",
        "ner"
      ],
      [
        "Ġbro",
        "ken"
      ],
      [
        "Ġdelic",
        "ious"
      ],
      [
        "Ġh",
        "un"
      ],
      [
        "Ġstr",
        "ange"
      ],
      [
        "Ġg",
        "i"
      ],
      [
        "or",
        "ing"
      ],
      [
        "as",
        "h"
      ],
      [
        "Ġre",
        "s"
      ],
      [
        "Ġbr",
        "ought"
      ],
      [
        "Ġperf",
        "ect"
      ],
      [
        "g",
        "on"
      ],
      [
        "ĠL",
        "ila"
      ],
      [
        "Ġdan",
        "c"
      ],
      [
        "Ġg",
        "one"
      ],
      [
        "Ġamaz",
        "ing"
      ],
      [
        "Ġp",
        "lease"
      ],
      [
        "Ġfe",
        "w"
      ],
      [
        "Ġv",
        "is"
      ],
      [
        "Ġe",
        "l"
      ],
      [
        "Ġm",
        "ight"
      ],
      [
        "a",
        "pp"
      ],
      [
        "Ġhe",
        "ar"
      ],
      [
        "Ġforg",
        "ot"
      ],
      [
        "Ġfin",
        "ally"
      ],
      [
        "p",
        "h"
      ],
      [
        "ĠJ",
        "en"
      ],
      [
        "Ġwood",
        "s"
      ],
      [
        "Ġar",
        "m"
      ],
      [
        "e",
        "e"
      ],
      [
        "Ġs",
        "ong"
      ],
      [
        "Ġm",
        "et"
      ],
      [
        "Ġde",
        "ep"
      ],
      [
        "A",
        "t"
      ],
      [
        "uff",
        "y"
      ],
      [
        "Ġp",
        "et"
      ],
      [
        "or",
        "n"
      ],
      [
        "ir",
        "rel"
      ],
      [
        "ĠM",
        "olly"
      ],
      [
        "et",
        "er"
      ],
      [
        "Ġbe",
        "ach"
      ],
      [
        "Ġs",
        "ec"
      ],
      [
        "Ġsa",
        "il"
      ],
      [
        "ĠW",
        "hat"
      ],
      [
        "Ġba",
        "by"
      ],
      [
        "Ġunderst",
        "and"
      ],
      [
        "ou",
        "p"
      ],
      [
        "ĠG",
        "ra"
      ],
      [
        "Ġd",
        "ir"
      ],
      [
        "Ġball",
        "oon"
      ],
      [
        "Ġlea",
        "ves"
      ],
      [
        "Ġel",
        "se"
      ],
      [
        "Ġsqu",
        "irrel"
      ],
      [
        "Ġpap",
        "er"
      ],
      [
        "ow",
        "er"
      ],
      [
        "Ġother",
        "s"
      ],
      [
        "Ġta",
        "il"
      ],
      [
        "Ġwh",
        "ite"
      ],
      [
        "Ġsc",
        "ary"
      ],
      [
        "Ġcl",
        "oud"
      ],
      [
        "Ġbook",
        "s"
      ],
      [
        "Ġs",
        "u"
      ],
      [
        "an",
        "ce"
      ],
      [
        "Ġdad",
        "dy"
      ],
      [
        "ic",
        "y"
      ],
      [
        "Ġro",
        "ll"
      ],
      [
        "Ġc",
        "astle"
      ],
      [
        "Ġevery",
        "thing"
      ],
      [
        "ĠTh",
        "is"
      ],
      [
        "Ġr",
        "ide"
      ],
      [
        "Ġwa",
        "ll"
      ],
      [
        "Ġj",
        "oy"
      ],
      [
        "Ġsee",
        "m"
      ],
      [
        "Ġtur",
        "ned"
      ],
      [
        "im",
        "my"
      ],
      [
        "Ġtal",
        "k"
      ],
      [
        "Ġcou",
        "nt"
      ],
      [
        "Ġbre",
        "ak"
      ],
      [
        "Ġh",
        "ot"
      ],
      [
        "Ġf",
        "ight"
      ],
      [
        "Ġwas",
        "n"
      ],
      [
        "Ġli",
        "kes"
      ],
      [
        "Ġg",
        "u"
      ],
      [
        "Ġp",
        "ink"
      ],
      [
        "Ġcom",
        "p"
      ],
      [
        "Ġcolor",
        "s"
      ],
      [
        "Ġamaz",
        "ed"
      ],
      [
        "l",
        "ing"
      ],
      [
        "r",
        "ed"
      ],
      [
        "on",
        "s"
      ],
      [
        "Ġsp",
        "l"
      ],
      [
        "Ġal",
        "one"
      ],
      [
        "d",
        "er"
      ],
      [
        "Ġpicture",
        "s"
      ],
      [
        "Ġw",
        "on"
      ],
      [
        "Ġwa",
        "ited"
      ],
      [
        "ĠJ",
        "ill"
      ],
      [
        "Ġf",
        "ur"
      ],
      [
        "at",
        "ed"
      ],
      [
        "ĠTom",
        "my"
      ],
      [
        "ct",
        "or"
      ],
      [
        "M",
        "ax"
      ],
      [
        "an",
        "c"
      ],
      [
        "Ġstay",
        "ed"
      ],
      [
        "Ġfly",
        "ing"
      ],
      [
        "am",
        "p"
      ],
      [
        "Ġj",
        "ob"
      ],
      [
        "Ġsp",
        "ark"
      ],
      [
        "Ġmor",
        "al"
      ],
      [
        "O",
        "h"
      ],
      [
        "o",
        "s"
      ],
      [
        "Ġ",
        "ve"
      ],
      [
        "Ġe",
        "le"
      ],
      [
        "z",
        "e"
      ],
      [
        "Ġs",
        "ide"
      ],
      [
        "Ġse",
        "ar"
      ],
      [
        "Ġsomet",
        "imes"
      ],
      [
        "Ġprom",
        "ised"
      ],
      [
        "Ġp",
        "en"
      ],
      [
        "u",
        "ally"
      ],
      [
        "Ġpo",
        "l"
      ],
      [
        "Ġgr",
        "ow"
      ],
      [
        "Ġlist",
        "ened"
      ],
      [
        "i",
        "re"
      ],
      [
        "Ġmus",
        "ic"
      ],
      [
        "Ġclimb",
        "ed"
      ],
      [
        "o",
        "om"
      ],
      [
        "Ġp",
        "i"
      ],
      [
        "ri",
        "es"
      ],
      [
        "Ġvis",
        "it"
      ],
      [
        "e",
        "ver"
      ],
      [
        "Ġdan",
        "ger"
      ],
      [
        "a",
        "pped"
      ],
      [
        "l",
        "f"
      ],
      [
        "ot",
        "t"
      ],
      [
        "Ġsh",
        "ared"
      ],
      [
        "ĠA",
        "my"
      ],
      [
        "Ġbel",
        "ie"
      ],
      [
        "ke",
        "y"
      ],
      [
        "Ġtow",
        "ards"
      ],
      [
        "Ġcl",
        "ot"
      ],
      [
        "Ġhun",
        "gry"
      ],
      [
        "i",
        "x"
      ],
      [
        "m",
        "e"
      ],
      [
        "r",
        "ow"
      ],
      [
        "ĠB",
        "illy"
      ],
      [
        "Ġh",
        "ide"
      ],
      [
        "Ġgra",
        "ndma"
      ],
      [
        "Ġclot",
        "hes"
      ],
      [
        "Ġf",
        "ield"
      ],
      [
        "an",
        "g"
      ],
      [
        "Ġli",
        "ving"
      ],
      [
        "uck",
        "y"
      ],
      [
        "Ġf",
        "all"
      ],
      [
        "Ġl",
        "ake"
      ],
      [
        "Ġm",
        "akes"
      ],
      [
        "Ġbig",
        "ger"
      ],
      [
        "Ġw",
        "et"
      ],
      [
        "s",
        "w"
      ],
      [
        "Ġmo",
        "st"
      ],
      [
        "t",
        "hy"
      ],
      [
        "ĠT",
        "o"
      ],
      [
        "el",
        "c"
      ],
      [
        "Ġste",
        "pped"
      ],
      [
        "re",
        "w"
      ],
      [
        "Ġslow",
        "ly"
      ],
      [
        "Ġan",
        "sw"
      ],
      [
        "av",
        "y"
      ],
      [
        "H",
        "i"
      ],
      [
        "M",
        "aybe"
      ],
      [
        "o",
        "l"
      ],
      [
        "Ġm",
        "ust"
      ],
      [
        "m",
        "an"
      ],
      [
        "Ġwant",
        "s"
      ],
      [
        "am",
        "es"
      ],
      [
        "W",
        "hy"
      ],
      [
        "is",
        "ter"
      ],
      [
        "ck",
        "et"
      ],
      [
        "Ġpu",
        "ppy"
      ],
      [
        "Ġdis",
        "app"
      ],
      [
        "Ġmagic",
        "al"
      ],
      [
        "Ġe",
        "m"
      ],
      [
        "ĠA",
        "ll"
      ],
      [
        "op",
        "e"
      ],
      [
        "Ġdan",
        "ce"
      ],
      [
        "Ġp",
        "a"
      ],
      [
        "Ġne",
        "igh"
      ],
      [
        "Ġs",
        "illy"
      ],
      [
        "ain",
        "ed"
      ],
      [
        "bb",
        "y"
      ],
      [
        "Ġneigh",
        "b"
      ],
      [
        "or",
        "m"
      ],
      [
        "ĠF",
        "l"
      ],
      [
        "b",
        "ble"
      ],
      [
        "Ġbe",
        "e"
      ],
      [
        "Ġpull",
        "ed"
      ],
      [
        "s",
        "et"
      ],
      [
        "Ġb",
        "ike"
      ],
      [
        "Ġb",
        "ott"
      ],
      [
        "ig",
        "g"
      ],
      [
        "Ġfast",
        "er"
      ],
      [
        "g",
        "g"
      ],
      [
        "z",
        "z"
      ],
      [
        "Ġc",
        "ream"
      ],
      [
        "pp",
        "ing"
      ],
      [
        "Ġpl",
        "an"
      ],
      [
        "i",
        "pped"
      ],
      [
        "u",
        "d"
      ],
      [
        "Ġsmil",
        "es"
      ],
      [
        "Ġb",
        "ar"
      ],
      [
        "ug",
        "g"
      ],
      [
        "Ġtre",
        "asure"
      ],
      [
        "w",
        "eet"
      ],
      [
        "Ġat",
        "t"
      ],
      [
        "Ġjo",
        "in"
      ],
      [
        "Ġc",
        "a"
      ],
      [
        "ss",
        "ed"
      ],
      [
        "Ġb",
        "uck"
      ],
      [
        "en",
        "ce"
      ],
      [
        "ate",
        "ful"
      ],
      [
        "Ġfar",
        "mer"
      ],
      [
        "ph",
        "ant"
      ],
      [
        "Ġsec",
        "ret"
      ],
      [
        "Ġbl",
        "ank"
      ],
      [
        "Ġcry",
        "ing"
      ],
      [
        "e",
        "ared"
      ],
      [
        "Ġs",
        "it"
      ],
      [
        "Ġle",
        "ave"
      ],
      [
        "Ġtra",
        "in"
      ],
      [
        "Ġmon",
        "ster"
      ],
      [
        "Ġpart",
        "y"
      ],
      [
        "Ġhe",
        "avy"
      ],
      [
        "Ġhelp",
        "ing"
      ],
      [
        "Ġwor",
        "ried"
      ],
      [
        "Ġbl",
        "ack"
      ],
      [
        "Ġgr",
        "ateful"
      ],
      [
        "Ġele",
        "phant"
      ],
      [
        "vent",
        "ually"
      ],
      [
        "f",
        "ort"
      ],
      [
        "le",
        "ss"
      ],
      [
        "Ġcu",
        "p"
      ],
      [
        "m",
        "ent"
      ],
      [
        "Ġblank",
        "et"
      ],
      [
        "Ġm",
        "ix"
      ],
      [
        "Ġac",
        "ross"
      ],
      [
        "ec",
        "es"
      ],
      [
        "Ġbelie",
        "ve"
      ],
      [
        "Ġs",
        "ister"
      ],
      [
        "e",
        "ar"
      ],
      [
        "Ġw",
        "elc"
      ],
      [
        "un",
        "ch"
      ],
      [
        "Ġre",
        "ach"
      ],
      [
        "Ġpi",
        "eces"
      ],
      [
        "Ġpr",
        "o"
      ],
      [
        "Ġdanger",
        "ous"
      ],
      [
        "Ġs",
        "uch"
      ],
      [
        "it",
        "ing"
      ],
      [
        "Ġl",
        "on"
      ],
      [
        "Ġsh",
        "ap"
      ],
      [
        "Ġdra",
        "gon"
      ],
      [
        "Ġt",
        "eddy"
      ],
      [
        "Ġcook",
        "ies"
      ],
      [
        "as",
        "ed"
      ],
      [
        "O",
        "K"
      ],
      [
        "Ġwe",
        "ar"
      ],
      [
        "Ġj",
        "e"
      ],
      [
        "Ġla",
        "nd"
      ],
      [
        "Ġdoll",
        "s"
      ],
      [
        "Ġlon",
        "ely"
      ],
      [
        "Ġg",
        "if"
      ],
      [
        "Ġcolor",
        "ful"
      ],
      [
        "m",
        "ing"
      ],
      [
        "Ġexpl",
        "oring"
      ],
      [
        "Ġbat",
        "h"
      ],
      [
        "B",
        "ob"
      ],
      [
        "O",
        "kay"
      ],
      [
        "Ġc",
        "e"
      ],
      [
        "pp",
        "er"
      ],
      [
        "Ġpl",
        "ant"
      ],
      [
        "ĠM",
        "aybe"
      ],
      [
        "Ġor",
        "ange"
      ],
      [
        "Ġac",
        "c"
      ],
      [
        "b",
        "r"
      ],
      [
        "Ġt",
        "reat"
      ],
      [
        "out",
        "h"
      ],
      [
        "o",
        "se"
      ],
      [
        "r",
        "ot"
      ],
      [
        "is",
        "es"
      ],
      [
        "Ġm",
        "oney"
      ],
      [
        "Ġr",
        "ace"
      ],
      [
        "um",
        "b"
      ],
      [
        "Ġbro",
        "ke"
      ],
      [
        "Ġgent",
        "le"
      ],
      [
        "i",
        "et"
      ],
      [
        "n",
        "ey"
      ],
      [
        "Ġst",
        "uck"
      ],
      [
        "Ġclo",
        "sed"
      ],
      [
        "Ġow",
        "l"
      ],
      [
        "Ġyou",
        "ng"
      ],
      [
        "Ġwor",
        "ds"
      ],
      [
        "id",
        "ent"
      ],
      [
        "Ġwith",
        "out"
      ],
      [
        "Ġcl",
        "apped"
      ],
      [
        "Ġm",
        "outh"
      ],
      [
        "Ġevery",
        "where"
      ],
      [
        "Ġsa",
        "me"
      ],
      [
        "Ġst",
        "and"
      ],
      [
        "ra",
        "ct"
      ],
      [
        "Ġh",
        "ig"
      ],
      [
        "Ġn",
        "ap"
      ],
      [
        "Ġc",
        "andy"
      ],
      [
        "Ġhe",
        "al"
      ],
      [
        "Ġs",
        "uddenly"
      ],
      [
        "Ġr",
        "iver"
      ],
      [
        "Ġdo",
        "ctor"
      ],
      [
        "S",
        "ure"
      ],
      [
        "Ġp",
        "ot"
      ],
      [
        "Ġj",
        "u"
      ],
      [
        "Ġd",
        "es"
      ],
      [
        "Ġsn",
        "ack"
      ],
      [
        "Ġseem",
        "ed"
      ],
      [
        "F",
        "inally"
      ],
      [
        "Ġhapp",
        "en"
      ],
      [
        "Ġeat",
        "ing"
      ],
      [
        "Ġk",
        "ite"
      ],
      [
        "Ġbuck",
        "et"
      ],
      [
        "or",
        "ed"
      ],
      [
        "Ġte",
        "ac"
      ],
      [
        "Ġtow",
        "n"
      ],
      [
        "ĠDad",
        "dy"
      ],
      [
        "e",
        "k"
      ],
      [
        "u",
        "it"
      ],
      [
        "Ġc",
        "our"
      ],
      [
        "Ġsh",
        "op"
      ],
      [
        "Ġqu",
        "iet"
      ],
      [
        "Ġlong",
        "er"
      ],
      [
        "Ġapp",
        "le"
      ],
      [
        "h",
        "one"
      ],
      [
        "t",
        "s"
      ],
      [
        "Ġp",
        "ers"
      ],
      [
        "ch",
        "ool"
      ],
      [
        "fu",
        "sed"
      ],
      [
        "ou",
        "n"
      ],
      [
        "Ġhe",
        "art"
      ],
      [
        "Ġsm",
        "o"
      ],
      [
        "Ġb",
        "ite"
      ],
      [
        "Ġask",
        "s"
      ],
      [
        "Ġprin",
        "cess"
      ],
      [
        "Ġm",
        "in"
      ],
      [
        "itt",
        "y"
      ],
      [
        "Ġche",
        "ered"
      ],
      [
        "Ġhig",
        "her"
      ],
      [
        "Ġf",
        "ree"
      ],
      [
        "Ġsc",
        "ream"
      ],
      [
        "Ġsho",
        "es"
      ],
      [
        "Ġt",
        "iny"
      ],
      [
        "Ġto",
        "day"
      ],
      [
        "ie",
        "ved"
      ],
      [
        "Ġth",
        "ough"
      ],
      [
        "Ġcour",
        "se"
      ],
      [
        "D",
        "o"
      ],
      [
        "s",
        "y"
      ],
      [
        "Ġs",
        "chool"
      ],
      [
        "Ġsw",
        "am"
      ],
      [
        "Ġadventure",
        "s"
      ],
      [
        "Ġhop",
        "ed"
      ],
      [
        "ĠT",
        "weet"
      ],
      [
        "Ġup",
        "set"
      ],
      [
        "i",
        "er"
      ],
      [
        "Ġw",
        "in"
      ],
      [
        "Ġj",
        "our"
      ],
      [
        "Ġbr",
        "own"
      ],
      [
        "Ġwould",
        "n"
      ],
      [
        "Ġcar",
        "ry"
      ],
      [
        "L",
        "ucy"
      ],
      [
        "Ġbr",
        "ing"
      ],
      [
        "ask",
        "et"
      ],
      [
        "Ġdir",
        "ty"
      ],
      [
        "Ġb",
        "asket"
      ],
      [
        "ion",
        "s"
      ],
      [
        "Ġow",
        "ner"
      ],
      [
        "Ġc",
        "ave"
      ],
      [
        "Ġo",
        "b"
      ],
      [
        "Ġal",
        "ong"
      ],
      [
        "Ġfr",
        "uit"
      ],
      [
        "Ġh",
        "or"
      ],
      [
        "Ġpl",
        "ac"
      ],
      [
        "ĠM",
        "r"
      ],
      [
        "Ġpo",
        "cket"
      ],
      [
        "Ġnear",
        "by"
      ],
      [
        "Ġacc",
        "ident"
      ],
      [
        "Ġs",
        "ign"
      ],
      [
        "Ġth",
        "rew"
      ],
      [
        "Ġtw",
        "ins"
      ],
      [
        "Ġdro",
        "ve"
      ],
      [
        "A",
        "nd"
      ],
      [
        "Ġst",
        "u"
      ],
      [
        "Ġcol",
        "our"
      ],
      [
        "Ġpus",
        "hed"
      ],
      [
        "Ġfair",
        "y"
      ],
      [
        "Ġwelc",
        "ome"
      ],
      [
        "y",
        "ard"
      ],
      [
        "Ġcr",
        "ay"
      ],
      [
        "Ġteac",
        "her"
      ],
      [
        "h",
        "o"
      ],
      [
        "Ġp",
        "ower"
      ],
      [
        "Ġsp",
        "r"
      ],
      [
        "Ġc",
        "aught"
      ],
      [
        "Ġp",
        "ie"
      ],
      [
        "Ġback",
        "yard"
      ],
      [
        "Ġco",
        "ll"
      ],
      [
        "Ġexpl",
        "ained"
      ],
      [
        "Ġthink",
        "s"
      ],
      [
        "Ġn",
        "aught"
      ],
      [
        "Ġye",
        "ar"
      ],
      [
        "d",
        "e"
      ],
      [
        "ou",
        "nt"
      ],
      [
        "Ġin",
        "st"
      ],
      [
        "Ġp",
        "ack"
      ],
      [
        "Ġst",
        "re"
      ],
      [
        "Ġse",
        "a"
      ],
      [
        "a",
        "il"
      ],
      [
        "Ġdro",
        "pped"
      ],
      [
        "e",
        "ad"
      ],
      [
        "Ġmon",
        "key"
      ],
      [
        "ĠEm",
        "ma"
      ],
      [
        "Ġbow",
        "l"
      ],
      [
        "Ġ",
        "3"
      ],
      [
        "Ġg",
        "ames"
      ],
      [
        "Ġsm",
        "art"
      ],
      [
        "Ġex",
        "p"
      ],
      [
        "Ġsun",
        "ny"
      ],
      [
        "Ġnaught",
        "y"
      ],
      [
        "c",
        "le"
      ],
      [
        "w",
        "ard"
      ],
      [
        "Ġrel",
        "ieved"
      ],
      [
        "i",
        "ble"
      ],
      [
        "Ġw",
        "ings"
      ],
      [
        "Ġl",
        "unch"
      ],
      [
        "Ġta",
        "king"
      ],
      [
        "ck",
        "ed"
      ],
      [
        "b",
        "ow"
      ],
      [
        "Ġcar",
        "rot"
      ],
      [
        "Ġs",
        "oup"
      ],
      [
        "ve",
        "l"
      ],
      [
        "Ġlaug",
        "hing"
      ],
      [
        "Ġtow",
        "er"
      ],
      [
        "ĠFl",
        "uffy"
      ],
      [
        "p",
        "e"
      ],
      [
        "Ġd",
        "ry"
      ],
      [
        "Ġy",
        "ard"
      ],
      [
        "Ġsw",
        "ings"
      ],
      [
        "Ġmo",
        "ved"
      ],
      [
        "Ġwo",
        "ke"
      ],
      [
        "Ġb",
        "oun"
      ],
      [
        "ad",
        "ow"
      ],
      [
        "Ġrain",
        "bow"
      ],
      [
        "Ġbel",
        "ong"
      ],
      [
        "Ġl",
        "ate"
      ],
      [
        "Ġd",
        "ist"
      ],
      [
        "L",
        "ila"
      ],
      [
        "Ġwe",
        "ll"
      ],
      [
        "Ġli",
        "fe"
      ],
      [
        "Ġv",
        "ill"
      ],
      [
        "Ġ",
        "es"
      ],
      [
        "Ġc",
        "or"
      ],
      [
        "Ġm",
        "ine"
      ],
      [
        "Ġfor",
        "get"
      ],
      [
        "us",
        "h"
      ],
      [
        "Ġpre",
        "s"
      ],
      [
        "M",
        "ia"
      ],
      [
        "or",
        "row"
      ],
      [
        "ver",
        "ed"
      ],
      [
        "Ġst",
        "ars"
      ],
      [
        "Ġsh",
        "ook"
      ],
      [
        "Ġnot",
        "hing"
      ],
      [
        "Ġw",
        "ish"
      ],
      [
        "ĠJ",
        "immy"
      ],
      [
        "M",
        "olly"
      ],
      [
        "u",
        "ched"
      ],
      [
        "in",
        "ing"
      ],
      [
        "Ġto",
        "uched"
      ],
      [
        "Ġm",
        "ark"
      ],
      [
        "un",
        "g"
      ],
      [
        "Ġtr",
        "ou"
      ],
      [
        "Ġp",
        "ast"
      ],
      [
        "itt",
        "ing"
      ],
      [
        "ĠM",
        "ama"
      ],
      [
        "ock",
        "ed"
      ],
      [
        "Ġw",
        "ise"
      ],
      [
        "Ġbus",
        "h"
      ],
      [
        "Ġbus",
        "y"
      ],
      [
        "Ġb",
        "en"
      ],
      [
        "Ġsp",
        "oon"
      ],
      [
        "Ġmy",
        "ster"
      ],
      [
        "ĠSo",
        "on"
      ],
      [
        "Ġma",
        "il"
      ],
      [
        "Ġrock",
        "s"
      ],
      [
        "a",
        "ur"
      ],
      [
        "Ġsa",
        "ng"
      ],
      [
        "Ġexc",
        "iting"
      ],
      [
        "Ġg",
        "igg"
      ],
      [
        "Ġrun",
        "s"
      ],
      [
        "L",
        "ater"
      ],
      [
        "l",
        "a"
      ],
      [
        "Ġpat",
        "h"
      ],
      [
        "Ġb",
        "reat"
      ],
      [
        "Ġin",
        "v"
      ],
      [
        "iz",
        "e"
      ],
      [
        "Ġthr",
        "ow"
      ],
      [
        "ount",
        "ain"
      ],
      [
        "g",
        "ged"
      ],
      [
        "is",
        "sed"
      ],
      [
        "Ġle",
        "g"
      ],
      [
        "Åĵ",
        "I"
      ],
      [
        "Ġpres",
        "ent"
      ],
      [
        "Ġc",
        "ir"
      ],
      [
        "Ġsmil",
        "ing"
      ],
      [
        "Ġpe",
        "ace"
      ],
      [
        "Ġres",
        "p"
      ],
      [
        "ĠGra",
        "ndma"
      ],
      [
        "Ġneighb",
        "or"
      ],
      [
        "p",
        "ed"
      ],
      [
        "t",
        "ur"
      ],
      [
        "Ġbut",
        "t"
      ],
      [
        "Ġno",
        "ises"
      ],
      [
        "Ġco",
        "zy"
      ],
      [
        "Ġs",
        "ick"
      ],
      [
        "Ġm",
        "iss"
      ],
      [
        "Ġin",
        "c"
      ],
      [
        "ĠM",
        "ary"
      ],
      [
        "aught",
        "er"
      ],
      [
        "re",
        "st"
      ],
      [
        "Ġday",
        "s"
      ],
      [
        "Ġshap",
        "es"
      ],
      [
        "Ġwh",
        "ist"
      ],
      [
        "Ġre",
        "tur"
      ],
      [
        "Ġcreat",
        "ure"
      ],
      [
        "Ġsing",
        "ing"
      ],
      [
        "ĠIn",
        "side"
      ],
      [
        "Ġhold",
        "ing"
      ],
      [
        "ir",
        "t"
      ],
      [
        "Ġe",
        "as"
      ],
      [
        "Ġli",
        "ft"
      ],
      [
        "Ġwatch",
        "ing"
      ],
      [
        "Ġtast",
        "ed"
      ],
      [
        "Ġswim",
        "ming"
      ],
      [
        "Ġp",
        "udd"
      ],
      [
        "Ġch",
        "air"
      ],
      [
        "Ġfeel",
        "s"
      ],
      [
        "Ġdel",
        "ight"
      ],
      [
        "e",
        "rest"
      ],
      [
        "nd",
        "p"
      ],
      [
        "Ġh",
        "it"
      ],
      [
        "an",
        "ch"
      ],
      [
        "itt",
        "en"
      ],
      [
        "Ġne",
        "ck"
      ],
      [
        "Ġbr",
        "anch"
      ],
      [
        "Ġint",
        "erest"
      ],
      [
        "ĠSam",
        "my"
      ],
      [
        "sh",
        "ine"
      ],
      [
        "Ġjour",
        "ney"
      ],
      [
        "Ġs",
        "ur"
      ],
      [
        "Ġw",
        "he"
      ],
      [
        "re",
        "ad"
      ],
      [
        "ll",
        "o"
      ],
      [
        "Ġdr",
        "ink"
      ],
      [
        "Ġa",
        "f"
      ],
      [
        "bo",
        "ard"
      ],
      [
        "al",
        "m"
      ],
      [
        "Ġro",
        "b"
      ],
      [
        "Ġsun",
        "shine"
      ],
      [
        "Tom",
        "my"
      ],
      [
        "Ġdis",
        "co"
      ],
      [
        "th",
        "day"
      ],
      [
        "Ġturn",
        "s"
      ],
      [
        "M",
        "um"
      ],
      [
        "t",
        "o"
      ],
      [
        "Ġhug",
        "e"
      ],
      [
        "Ġwonder",
        "ed"
      ],
      [
        "Ġpat",
        "ient"
      ],
      [
        "Ġpoin",
        "ted"
      ],
      [
        "Ġdanc",
        "ed"
      ],
      [
        "Ġe",
        "ag"
      ],
      [
        "Ġcut",
        "e"
      ],
      [
        "Ġhor",
        "se"
      ],
      [
        "Ġrob",
        "ot"
      ],
      [
        "O",
        "f"
      ],
      [
        "Ġl",
        "etter"
      ],
      [
        "Ġp",
        "ig"
      ],
      [
        "Ġn",
        "est"
      ],
      [
        "Ġno",
        "se"
      ],
      [
        "Ġke",
        "y"
      ],
      [
        "Ġim",
        "ag"
      ],
      [
        "n",
        "ess"
      ],
      [
        "Ġs",
        "itting"
      ],
      [
        "Ġf",
        "it"
      ],
      [
        "Ġp",
        "ract"
      ],
      [
        "Ġju",
        "ice"
      ],
      [
        "f",
        "ish"
      ],
      [
        "Ġb",
        "ought"
      ],
      [
        "id",
        "ge"
      ],
      [
        "Ġr",
        "ound"
      ],
      [
        "ep",
        "end"
      ],
      [
        "Ġhug",
        "s"
      ],
      [
        "He",
        "y"
      ],
      [
        "Ġcloud",
        "s"
      ],
      [
        "Ġto",
        "m"
      ],
      [
        "Ġd",
        "aughter"
      ],
      [
        "Ġe",
        "ar"
      ],
      [
        "Ġcra",
        "w"
      ],
      [
        "Ġgif",
        "t"
      ],
      [
        "am",
        "ed"
      ],
      [
        "Ġsh",
        "r"
      ],
      [
        "Ġa",
        "ct"
      ],
      [
        "Ġp",
        "urp"
      ],
      [
        "Ġsp",
        "o"
      ],
      [
        "Ġbott",
        "le"
      ],
      [
        "o",
        "ve"
      ],
      [
        "Ġ",
        "ent"
      ],
      [
        "Ġb",
        "ur"
      ],
      [
        "Ġp",
        "ass"
      ],
      [
        "Ġbir",
        "thday"
      ],
      [
        "Ġany",
        "one"
      ],
      [
        "Ġaccident",
        "ally"
      ],
      [
        "l",
        "ice"
      ],
      [
        "Ġf",
        "ence"
      ],
      [
        "Ġc",
        "ard"
      ],
      [
        "Ġsa",
        "ck"
      ],
      [
        "Ġon",
        "to"
      ],
      [
        "ra",
        "id"
      ],
      [
        "Ġor",
        "gan"
      ],
      [
        "Ġcom",
        "es"
      ],
      [
        "iz",
        "z"
      ],
      [
        "Ġvill",
        "age"
      ],
      [
        "C",
        "ome"
      ],
      [
        "it",
        "ch"
      ],
      [
        "er",
        "t"
      ],
      [
        "Ġad",
        "m"
      ],
      [
        "Ġsound",
        "s"
      ],
      [
        "Ġarm",
        "s"
      ],
      [
        "Ġaf",
        "raid"
      ],
      [
        "J",
        "ust"
      ],
      [
        "itt",
        "ens"
      ],
      [
        "ĠEm",
        "ily"
      ],
      [
        "Ġpie",
        "ce"
      ],
      [
        "e",
        "en"
      ],
      [
        "Ġm",
        "ist"
      ],
      [
        "on",
        "t"
      ],
      [
        "le",
        "t"
      ],
      [
        "Ġsp",
        "in"
      ],
      [
        "Ġsp",
        "id"
      ],
      [
        "Ġlove",
        "ly"
      ],
      [
        "Ġfore",
        "ver"
      ],
      [
        "ndp",
        "a"
      ],
      [
        "Ġinterest",
        "ing"
      ],
      [
        "ĠF",
        "inally"
      ],
      [
        "Ġfr",
        "ont"
      ],
      [
        "Ġinst",
        "ead"
      ],
      [
        "o",
        "g"
      ],
      [
        "Ġt",
        "un"
      ],
      [
        "it",
        "y"
      ],
      [
        "Ġwh",
        "ich"
      ],
      [
        "Ġj",
        "ar"
      ],
      [
        "Ġch",
        "o"
      ],
      [
        "Ġqu",
        "est"
      ],
      [
        "ĠC",
        "ome"
      ],
      [
        "Ġsnow",
        "man"
      ],
      [
        "Ġmin",
        "ut"
      ],
      [
        "Ġcoll",
        "ect"
      ],
      [
        "Ġstre",
        "et"
      ],
      [
        "Ġp",
        "hone"
      ],
      [
        "Ġco",
        "in"
      ],
      [
        "Ġdri",
        "ver"
      ],
      [
        "ĠJen",
        "ny"
      ],
      [
        "Ġben",
        "ch"
      ],
      [
        "Ġpurp",
        "le"
      ],
      [
        "M",
        "y"
      ],
      [
        "o",
        "bby"
      ],
      [
        "Ġ",
        "'"
      ],
      [
        "Ġb",
        "al"
      ],
      [
        "Ġth",
        "in"
      ],
      [
        "Ġstor",
        "ies"
      ],
      [
        "Ġa",
        "p"
      ],
      [
        "Ġl",
        "ad"
      ],
      [
        "Ġl",
        "ucky"
      ],
      [
        "Ġm",
        "ad"
      ],
      [
        "le",
        "br"
      ],
      [
        "oo",
        "se"
      ],
      [
        "ble",
        "m"
      ],
      [
        "Ġbuild",
        "ing"
      ],
      [
        "c",
        "ed"
      ],
      [
        "s",
        "p"
      ],
      [
        "Ġs",
        "uc"
      ],
      [
        "Ġe",
        "ventually"
      ],
      [
        "Ġme",
        "et"
      ],
      [
        "Ġpro",
        "blem"
      ],
      [
        "Ġce",
        "lebr"
      ],
      [
        "Ġhe",
        "llo"
      ],
      [
        "Ġp",
        "ool"
      ],
      [
        "ar",
        "ge"
      ],
      [
        "Ġb",
        "and"
      ],
      [
        "Ġg",
        "ather"
      ],
      [
        "or",
        "d"
      ],
      [
        "et",
        "h"
      ],
      [
        "Ġsh",
        "ining"
      ],
      [
        "ĠJ",
        "ake"
      ],
      [
        "Ġgra",
        "b"
      ],
      [
        "ĠTh",
        "ank"
      ],
      [
        "Ġroll",
        "ed"
      ],
      [
        "N",
        "ow"
      ],
      [
        "n",
        "ic"
      ],
      [
        "u",
        "nt"
      ],
      [
        "Ġpic",
        "nic"
      ],
      [
        "co",
        "l"
      ],
      [
        "Ġspot",
        "ted"
      ],
      [
        "Ġsear",
        "ch"
      ],
      [
        "fort",
        "able"
      ],
      [
        "Ġlad",
        "der"
      ],
      [
        "Ġw",
        "ra"
      ],
      [
        "Ġw",
        "ild"
      ],
      [
        "ce",
        "an"
      ],
      [
        "Ġsp",
        "ent"
      ],
      [
        "Ġsp",
        "icy"
      ],
      [
        "Ġwho",
        "le"
      ],
      [
        "ĠC",
        "h"
      ],
      [
        "Ġfo",
        "ld"
      ],
      [
        "G",
        "ood"
      ],
      [
        "Ġo",
        "cean"
      ],
      [
        "Ġapp",
        "eared"
      ],
      [
        "Ġpers",
        "on"
      ],
      [
        "Ġh",
        "oney"
      ],
      [
        "Ġwe",
        "aring"
      ],
      [
        "Ġk",
        "ick"
      ],
      [
        "Ġas",
        "h"
      ],
      [
        "Ġtast",
        "y"
      ],
      [
        "Ġsmell",
        "ed"
      ],
      [
        "Ġsear",
        "ched"
      ],
      [
        "Ġansw",
        "er"
      ],
      [
        "t",
        "en"
      ],
      [
        "Ġsh",
        "y"
      ],
      [
        "Ġtal",
        "ked"
      ],
      [
        "Ġheal",
        "thy"
      ],
      [
        "Ġcray",
        "ons"
      ],
      [
        "I",
        "n"
      ],
      [
        "Ġas",
        "leep"
      ],
      [
        "Ġcle",
        "ver"
      ],
      [
        "Ġsand",
        "w"
      ],
      [
        "Ġplac",
        "es"
      ],
      [
        "Ġl",
        "ater"
      ],
      [
        "Ġsa",
        "f"
      ],
      [
        "Ġbu",
        "bble"
      ],
      [
        "Ġtal",
        "king"
      ],
      [
        "c",
        "es"
      ],
      [
        "h",
        "ile"
      ],
      [
        "Ġl",
        "arge"
      ],
      [
        "Ġm",
        "ach"
      ],
      [
        "Ġcor",
        "ner"
      ],
      [
        "o",
        "nd"
      ],
      [
        "ĠW",
        "ith"
      ],
      [
        "Ġh",
        "ar"
      ],
      [
        "Ġst",
        "ar"
      ],
      [
        "Ġrem",
        "ind"
      ],
      [
        "Ġcon",
        "fused"
      ],
      [
        "Ġem",
        "b"
      ],
      [
        "p",
        "er"
      ],
      [
        "Ġn",
        "ut"
      ],
      [
        "ir",
        "d"
      ],
      [
        "Ġso",
        "l"
      ],
      [
        "Ġk",
        "itten"
      ],
      [
        "Ġhop",
        "e"
      ],
      [
        "Ġspl",
        "as"
      ],
      [
        "Ġsmo",
        "oth"
      ],
      [
        "n",
        "n"
      ],
      [
        "omet",
        "imes"
      ],
      [
        "our",
        "s"
      ],
      [
        "Ġapp",
        "les"
      ],
      [
        "b",
        "all"
      ],
      [
        "Ġf",
        "ing"
      ],
      [
        "Ġl",
        "ay"
      ],
      [
        "Ġhelp",
        "ful"
      ],
      [
        "Ġpr",
        "ot"
      ],
      [
        "Ġfar",
        "m"
      ],
      [
        "Ġtri",
        "p"
      ],
      [
        "in",
        "ted"
      ],
      [
        "es",
        "e"
      ],
      [
        "Ġfe",
        "ather"
      ],
      [
        "Ġwait",
        "ing"
      ],
      [
        "Ġpus",
        "h"
      ],
      [
        "Ġscream",
        "ed"
      ],
      [
        "o",
        "ld"
      ],
      [
        "Ġs",
        "er"
      ],
      [
        "Ġo",
        "ven"
      ],
      [
        "ar",
        "ra"
      ],
      [
        "et",
        "e"
      ],
      [
        "Ġv",
        "al"
      ],
      [
        "Ġwr",
        "ite"
      ],
      [
        "Ġbug",
        "s"
      ],
      [
        "Ġemb",
        "arra"
      ],
      [
        "Ġb",
        "lew"
      ],
      [
        "Ġc",
        "ow"
      ],
      [
        "Ġe",
        "gg"
      ],
      [
        "Ġpl",
        "ane"
      ],
      [
        "Ġre",
        "c"
      ],
      [
        "Ġfin",
        "ish"
      ],
      [
        "Ġrock",
        "et"
      ],
      [
        "ul",
        "ar"
      ],
      [
        "Ġpudd",
        "le"
      ],
      [
        "Ġspid",
        "er"
      ],
      [
        "d",
        "en"
      ],
      [
        "Ġw",
        "ide"
      ],
      [
        "Ġst",
        "one"
      ],
      [
        "Ġte",
        "ach"
      ],
      [
        "Ġp",
        "ill"
      ],
      [
        "Ġwhen",
        "ever"
      ],
      [
        "us",
        "ie"
      ],
      [
        "Ġdisapp",
        "o"
      ],
      [
        "Ġmyster",
        "ious"
      ],
      [
        "Ġresp",
        "ect"
      ],
      [
        "Ġprot",
        "ect"
      ],
      [
        "a",
        "w"
      ],
      [
        "Ġ",
        "ign"
      ],
      [
        "Ġp",
        "ile"
      ],
      [
        "Ġche",
        "st"
      ],
      [
        "Ġstor",
        "m"
      ],
      [
        "Ġz",
        "oom"
      ],
      [
        "ĠTo",
        "gether"
      ],
      [
        "J",
        "ane"
      ],
      [
        "Ġc",
        "alm"
      ],
      [
        "Ġfor",
        "ward"
      ],
      [
        "Ġduck",
        "s"
      ],
      [
        "Ġgent",
        "ly"
      ],
      [
        "Ġmat",
        "ter"
      ],
      [
        "Ġfur",
        "ry"
      ],
      [
        "anc",
        "y"
      ],
      [
        "E",
        "very"
      ],
      [
        "Ġ",
        "O"
      ],
      [
        "el",
        "s"
      ],
      [
        "ĠJ",
        "ust"
      ],
      [
        "Ġgr",
        "oup"
      ],
      [
        "Ġpu",
        "zz"
      ],
      [
        "air",
        "s"
      ],
      [
        "eter",
        "m"
      ],
      [
        "g",
        "round"
      ],
      [
        "er",
        "ly"
      ],
      [
        "Ġd",
        "eterm"
      ],
      [
        "Ġle",
        "m"
      ],
      [
        "Ġta",
        "kes"
      ],
      [
        "Ġimp",
        "re"
      ],
      [
        "Ġfo",
        "ot"
      ],
      [
        "Ġcou",
        "ch"
      ],
      [
        "Ġn",
        "et"
      ],
      [
        "Ġk",
        "ing"
      ],
      [
        "Ġfe",
        "et"
      ],
      [
        "Ġsee",
        "k"
      ],
      [
        "Ġcar",
        "ried"
      ],
      [
        "Ġfix",
        "ed"
      ],
      [
        "ĠK",
        "itty"
      ],
      [
        "Ġtrou",
        "ble"
      ],
      [
        "ul",
        "t"
      ],
      [
        "Ġdri",
        "ve"
      ],
      [
        "Ġbreat",
        "h"
      ],
      [
        "Ġwa",
        "ve"
      ],
      [
        "Ġm",
        "il"
      ],
      [
        "Ġm",
        "ind"
      ],
      [
        "Ġsh",
        "irt"
      ],
      [
        "Ġhid",
        "den"
      ],
      [
        "M",
        "ama"
      ],
      [
        "Ġsp",
        "e"
      ],
      [
        "Ġche",
        "ese"
      ],
      [
        "ĠR",
        "e"
      ],
      [
        "Ġpower",
        "ful"
      ],
      [
        "S",
        "t"
      ],
      [
        "c",
        "er"
      ],
      [
        "Ġp",
        "izz"
      ],
      [
        "Ġk",
        "iss"
      ],
      [
        "Ġyell",
        "ed"
      ],
      [
        "Ġdisappo",
        "inted"
      ],
      [
        "e",
        "b"
      ],
      [
        "Ġche",
        "er"
      ],
      [
        "Ġtast",
        "e"
      ],
      [
        "Ġem",
        "p"
      ],
      [
        "a",
        "le"
      ],
      [
        "Ġf",
        "ig"
      ],
      [
        "Ġm",
        "ot"
      ],
      [
        "Ġp",
        "ar"
      ],
      [
        "Ġst",
        "ood"
      ],
      [
        "Ġst",
        "ep"
      ],
      [
        "Ġsp",
        "read"
      ],
      [
        "Ġme",
        "adow"
      ],
      [
        "Ġstand",
        "ing"
      ],
      [
        "Ġembarra",
        "ssed"
      ],
      [
        "Ġf",
        "ancy"
      ],
      [
        "Ġm",
        "ed"
      ],
      [
        "ar",
        "p"
      ],
      [
        "Ġg",
        "as"
      ],
      [
        "ĠS",
        "ome"
      ],
      [
        "le",
        "x"
      ],
      [
        "Ġsh",
        "arp"
      ],
      [
        "Ġla",
        "st"
      ],
      [
        "ĠJohn",
        "ny"
      ],
      [
        "Ġemp",
        "ty"
      ],
      [
        "Ġb",
        "er"
      ],
      [
        "is",
        "a"
      ],
      [
        "ow",
        "ed"
      ],
      [
        "get",
        "able"
      ],
      [
        "Ġsleep",
        "y"
      ],
      [
        "u",
        "p"
      ],
      [
        "Ġh",
        "on"
      ],
      [
        "Ġp",
        "op"
      ],
      [
        "Ġbe",
        "ll"
      ],
      [
        "Ġla",
        "w"
      ],
      [
        "Ġstr",
        "ing"
      ],
      [
        "Ġgre",
        "w"
      ],
      [
        "Ġsong",
        "s"
      ],
      [
        "Ġve",
        "getable"
      ],
      [
        "a",
        "king"
      ],
      [
        "v",
        "ous"
      ],
      [
        "ĠS",
        "t"
      ],
      [
        "Ġst",
        "ir"
      ],
      [
        "Ġshe",
        "ll"
      ],
      [
        "?\"",
        "."
      ],
      [
        "Ġprom",
        "ise"
      ],
      [
        "Ġpretend",
        "ed"
      ],
      [
        "Ġdanc",
        "ing"
      ],
      [
        "if",
        "e"
      ],
      [
        "ĠEvery",
        "where"
      ],
      [
        "Ġpizz",
        "a"
      ],
      [
        "W",
        "here"
      ],
      [
        "d",
        "le"
      ],
      [
        "Ġs",
        "our"
      ],
      [
        "Ġd",
        "i"
      ],
      [
        "Ġm",
        "ummy"
      ],
      [
        "Ġg",
        "ar"
      ],
      [
        "Ġsa",
        "l"
      ],
      [
        "Ġlo",
        "ves"
      ],
      [
        "Ġro",
        "ad"
      ],
      [
        "Ġco",
        "at"
      ],
      [
        "h",
        "in"
      ],
      [
        "Ġp",
        "le"
      ],
      [
        "ĠT",
        "V"
      ],
      [
        "or",
        "s"
      ],
      [
        "ĠB",
        "e"
      ],
      [
        "ur",
        "se"
      ],
      [
        "Ġho",
        "pping"
      ],
      [
        "ung",
        "le"
      ],
      [
        "Ġmil",
        "k"
      ],
      [
        "'",
        "d"
      ],
      [
        "J",
        "immy"
      ],
      [
        "al",
        "s"
      ],
      [
        "Ġj",
        "ungle"
      ],
      [
        "Ġbl",
        "ow"
      ],
      [
        "Ġsn",
        "ake"
      ],
      [
        "Ġtight",
        "ly"
      ],
      [
        "Ġmach",
        "ine"
      ],
      [
        "c",
        "ap"
      ],
      [
        "y",
        "m"
      ],
      [
        "Ġwas",
        "h"
      ],
      [
        "at",
        "o"
      ],
      [
        "Ġst",
        "ra"
      ],
      [
        "Ġse",
        "at"
      ],
      [
        "Ġex",
        "am"
      ],
      [
        "ĠE",
        "ven"
      ],
      [
        "So",
        "on"
      ],
      [
        "Ġbre",
        "ad"
      ],
      [
        "Ġhid",
        "ing"
      ],
      [
        "Ġpeace",
        "ful"
      ],
      [
        "Ġw",
        "ip"
      ],
      [
        "Ġn",
        "er"
      ],
      [
        "ĠS",
        "ometimes"
      ],
      [
        "os",
        "aur"
      ],
      [
        "Ġmot",
        "or"
      ],
      [
        "Ġs",
        "el"
      ],
      [
        "Sara",
        "h"
      ],
      [
        "Ġgi",
        "ves"
      ],
      [
        "Ġdir",
        "t"
      ],
      [
        "Ġt",
        "id"
      ],
      [
        "Ġb",
        "an"
      ],
      [
        "er",
        "a"
      ],
      [
        "Ġm",
        "ountain"
      ],
      [
        "Ġli",
        "ve"
      ],
      [
        "Ġbec",
        "ome"
      ],
      [
        "Ġje",
        "w"
      ],
      [
        "Ġner",
        "vous"
      ],
      [
        "M",
        "ummy"
      ],
      [
        "g",
        "ly"
      ],
      [
        "Ġh",
        "ur"
      ],
      [
        "Ġf",
        "il"
      ],
      [
        "Ġc",
        "oo"
      ],
      [
        "Ġm",
        "u"
      ],
      [
        "Ġm",
        "ud"
      ],
      [
        "Ġu",
        "gly"
      ],
      [
        "ig",
        "hed"
      ],
      [
        "Ġv",
        "ase"
      ],
      [
        "Ġtr",
        "ust"
      ],
      [
        "Ġsl",
        "id"
      ],
      [
        "Ġforg",
        "ive"
      ],
      [
        "Ġru",
        "de"
      ],
      [
        "Ġsu",
        "pp"
      ],
      [
        "Ġspark",
        "ly"
      ],
      [
        "Ġpol",
        "ite"
      ],
      [
        "c",
        "les"
      ],
      [
        "Ġm",
        "ic"
      ],
      [
        "Ġplay",
        "ground"
      ],
      [
        "Ġfl",
        "ut"
      ],
      [
        "Ġjump",
        "ing"
      ],
      [
        "bo",
        "x"
      ],
      [
        "Ġmat",
        "ch"
      ],
      [
        "Ġgar",
        "age"
      ],
      [
        "P",
        "lease"
      ],
      [
        "m",
        "o"
      ],
      [
        "u",
        "al"
      ],
      [
        "y",
        "ing"
      ],
      [
        "Ġh",
        "ours"
      ],
      [
        "Ġc",
        "ap"
      ],
      [
        "om",
        "an"
      ],
      [
        "Ġr",
        "ope"
      ],
      [
        "as",
        "er"
      ],
      [
        "Ġdin",
        "osaur"
      ],
      [
        "Ġcreat",
        "ive"
      ],
      [
        "Ġcook",
        "ie"
      ],
      [
        "Ġfight",
        "ing"
      ],
      [
        "Ġsuc",
        "cess"
      ],
      [
        "Ġw",
        "oman"
      ],
      [
        "Ġch",
        "ick"
      ],
      [
        "Ġstick",
        "s"
      ],
      [
        "Ġwhist",
        "le"
      ],
      [
        "Ġdeterm",
        "ined"
      ],
      [
        "Ġthe",
        "se"
      ],
      [
        "Ġg",
        "en"
      ],
      [
        "ck",
        "s"
      ],
      [
        "Ġre",
        "g"
      ],
      [
        "ĠM",
        "ittens"
      ],
      [
        "Ġdec",
        "or"
      ],
      [
        "iz",
        "zy"
      ],
      [
        "ĠP",
        "ete"
      ],
      [
        "Ġansw",
        "ered"
      ],
      [
        "Ġtom",
        "orrow"
      ],
      [
        "Ġh",
        "um"
      ],
      [
        "Ġp",
        "ri"
      ],
      [
        "Ġas",
        "king"
      ],
      [
        "Ġch",
        "ased"
      ],
      [
        "Ġlem",
        "on"
      ],
      [
        "Ġsel",
        "fish"
      ],
      [
        "Ġ",
        "On"
      ],
      [
        "id",
        "dle"
      ],
      [
        "Ġsa",
        "ve"
      ],
      [
        "Ġst",
        "ret"
      ],
      [
        "Ġkn",
        "ocked"
      ],
      [
        "Ġfa",
        "ces"
      ],
      [
        "Ġche",
        "w"
      ],
      [
        "Ġminut",
        "es"
      ],
      [
        "D",
        "ad"
      ],
      [
        "T",
        "o"
      ],
      [
        "Ġb",
        "ark"
      ],
      [
        "Ġc",
        "art"
      ],
      [
        "on",
        "es"
      ],
      [
        "ce",
        "pt"
      ],
      [
        "Ġspr",
        "ay"
      ],
      [
        "Ġeas",
        "y"
      ],
      [
        "Ġash",
        "amed"
      ],
      [
        "Ġwe",
        "ak"
      ],
      [
        "Ġkne",
        "e"
      ],
      [
        "Ġsk",
        "ipped"
      ],
      [
        "Ġbed",
        "room"
      ],
      [
        "Ġpa",
        "w"
      ],
      [
        "Ġbal",
        "ance"
      ],
      [
        "J",
        "ill"
      ],
      [
        "i",
        "pper"
      ],
      [
        "an",
        "ut"
      ],
      [
        "Ġshe",
        "lf"
      ],
      [
        "Ġsh",
        "aring"
      ],
      [
        "Ġfl",
        "ag"
      ],
      [
        "Ġdre",
        "w"
      ],
      [
        "Ġbar",
        "ked"
      ],
      [
        "Ġplant",
        "s"
      ],
      [
        "f",
        "l"
      ],
      [
        "Ġt",
        "est"
      ],
      [
        "Ġp",
        "our"
      ],
      [
        "Ġsh",
        "ip"
      ],
      [
        "Ġwh",
        "is"
      ],
      [
        "Ġjo",
        "ke"
      ],
      [
        "Ġspl",
        "ash"
      ],
      [
        "Ġretur",
        "ned"
      ],
      [
        "Ġp",
        "in"
      ],
      [
        "ĠS",
        "usie"
      ],
      [
        "an",
        "a"
      ],
      [
        "ĠH",
        "ow"
      ],
      [
        "Ġsh",
        "ore"
      ],
      [
        "um",
        "ber"
      ],
      [
        "Ġexc",
        "ite"
      ],
      [
        "Ġknow",
        "ing"
      ],
      [
        "ĠP",
        "eter"
      ],
      [
        "Ġpain",
        "ting"
      ],
      [
        "Ġpol",
        "ice"
      ],
      [
        "mo",
        "st"
      ],
      [
        "B",
        "e"
      ],
      [
        "l",
        "ight"
      ],
      [
        "in",
        "a"
      ],
      [
        "Ġhe",
        "ars"
      ],
      [
        "Ġro",
        "ar"
      ],
      [
        "Ġsw",
        "an"
      ],
      [
        "Ġyour",
        "self"
      ],
      [
        "Ġgr",
        "ay"
      ],
      [
        "Ġte",
        "ars"
      ],
      [
        "Ġland",
        "ed"
      ],
      [
        "Ġbutt",
        "on"
      ],
      [
        "Ġcho",
        "col"
      ],
      [
        "Ġp",
        "as"
      ],
      [
        "itt",
        "er"
      ],
      [
        "ĠJ",
        "im"
      ],
      [
        "Ġal",
        "most"
      ],
      [
        "Ġme",
        "ant"
      ],
      [
        "Ġtr",
        "ue"
      ],
      [
        "Ġte",
        "eth"
      ],
      [
        "Ġmar",
        "ble"
      ],
      [
        "Ġgi",
        "ant"
      ],
      [
        "Ġneck",
        "l"
      ],
      [
        "Ġexcite",
        "ment"
      ],
      [
        "Ġpas",
        "sed"
      ],
      [
        "Ġw",
        "ore"
      ],
      [
        "it",
        "al"
      ],
      [
        "Ġm",
        "iddle"
      ],
      [
        "The",
        "re"
      ],
      [
        "Ġgo",
        "es"
      ],
      [
        "Ġdog",
        "s"
      ],
      [
        "Ġho",
        "sp"
      ],
      [
        "Jo",
        "e"
      ],
      [
        "Ġdisapp",
        "eared"
      ],
      [
        "Ġgigg",
        "led"
      ],
      [
        "Ġf",
        "ather"
      ],
      [
        "Ġl",
        "ine"
      ],
      [
        "Ġc",
        "and"
      ],
      [
        "Ġd",
        "epend"
      ],
      [
        "Ġpl",
        "ate"
      ],
      [
        "ĠM",
        "um"
      ],
      [
        "Ġcl",
        "own"
      ],
      [
        "ump",
        "y"
      ],
      [
        "Ġte",
        "a"
      ],
      [
        "Ġunderst",
        "ood"
      ],
      [
        "Ġgen",
        "er"
      ],
      [
        "Ġhosp",
        "ital"
      ],
      [
        "in",
        "ation"
      ],
      [
        "Ġm",
        "aybe"
      ],
      [
        "Ġha",
        "ng"
      ],
      [
        "ĠM",
        "ummy"
      ],
      [
        "Ġfl",
        "uffy"
      ],
      [
        "Ġsnack",
        "s"
      ],
      [
        "Ġcolour",
        "ful"
      ],
      [
        "Ġmark",
        "et"
      ],
      [
        "Ġchocol",
        "ate"
      ],
      [
        "p",
        "ack"
      ],
      [
        "Ġa",
        "nt"
      ],
      [
        "Ġm",
        "issed"
      ],
      [
        "at",
        "ing"
      ],
      [
        "ĠThe",
        "ir"
      ],
      [
        "Ġwe",
        "ek"
      ],
      [
        "Ġle",
        "ad"
      ],
      [
        "us",
        "hed"
      ],
      [
        "us",
        "ual"
      ],
      [
        "Ġun",
        "usual"
      ],
      [
        "Ġtreat",
        "s"
      ],
      [
        "S",
        "ally"
      ],
      [
        "S",
        "ue"
      ],
      [
        "l",
        "s"
      ],
      [
        "Ġ",
        "ed"
      ],
      [
        "Ġhe",
        "l"
      ],
      [
        "ll",
        "a"
      ],
      [
        "ĠL",
        "e"
      ],
      [
        "ill",
        "i"
      ],
      [
        "Ġkn",
        "ight"
      ],
      [
        "Ġgl",
        "ue"
      ],
      [
        "ĠG",
        "o"
      ],
      [
        "Ġcr",
        "ack"
      ],
      [
        "Ġtell",
        "s"
      ],
      [
        "ĠTweet",
        "y"
      ],
      [
        "Ġtid",
        "y"
      ],
      [
        "Ġgener",
        "ous"
      ],
      [
        "c",
        "y"
      ],
      [
        "u",
        "ce"
      ],
      [
        "Ġwa",
        "nder"
      ],
      [
        "Ġwa",
        "gon"
      ],
      [
        "ĠB",
        "obby"
      ],
      [
        "Ġan",
        "g"
      ],
      [
        "Ġfe",
        "ed"
      ],
      [
        "Ġfe",
        "ar"
      ],
      [
        "ell",
        "y"
      ],
      [
        "ĠD",
        "on"
      ],
      [
        "Ġta",
        "ken"
      ],
      [
        "Ġz",
        "oo"
      ],
      [
        "ens",
        "ive"
      ],
      [
        "Ġmar",
        "ch"
      ],
      [
        "Ġsail",
        "ed"
      ],
      [
        "Ġbath",
        "room"
      ],
      [
        "Ġexp",
        "ensive"
      ],
      [
        "Ġgather",
        "ed"
      ],
      [
        "Ġfig",
        "ure"
      ],
      [
        "p",
        "ort"
      ],
      [
        "Ġt",
        "er"
      ],
      [
        "Ġt",
        "ank"
      ],
      [
        "Ġwa",
        "gged"
      ],
      [
        "Ġc",
        "age"
      ],
      [
        "Ġc",
        "ross"
      ],
      [
        "Ġr",
        "id"
      ],
      [
        "Ġof",
        "ten"
      ],
      [
        "Ġbo",
        "ard"
      ],
      [
        "Åĵ",
        "Let"
      ],
      [
        "Ġhappen",
        "ing"
      ],
      [
        "cap",
        "e"
      ],
      [
        "G",
        "ra"
      ],
      [
        "u",
        "b"
      ],
      [
        "Ġt",
        "ag"
      ],
      [
        "Ġp",
        "ir"
      ],
      [
        "ar",
        "l"
      ],
      [
        "im",
        "p"
      ],
      [
        "Ġth",
        "ick"
      ],
      [
        "Ġst",
        "uff"
      ],
      [
        "al",
        "ous"
      ],
      [
        "Ġpo",
        "or"
      ],
      [
        "Ġcall",
        "ing"
      ],
      [
        "Ġpen",
        "ny"
      ],
      [
        "Ġje",
        "alous"
      ],
      [
        "Ġspo",
        "il"
      ],
      [
        "Ġsandw",
        "ich"
      ],
      [
        "Ġneckl",
        "ace"
      ],
      [
        "Ġa",
        "v"
      ],
      [
        "Ġa",
        "dd"
      ],
      [
        "Ġno",
        "ds"
      ],
      [
        "Ġman",
        "ag"
      ],
      [
        "Ġwor",
        "m"
      ],
      [
        "Ġpe",
        "anut"
      ],
      [
        "Ġtw",
        "irl"
      ],
      [
        "Ġfr",
        "own"
      ],
      [
        "Ġdraw",
        "ing"
      ],
      [
        "Ġthank",
        "ful"
      ],
      [
        "Ġpoin",
        "ting"
      ],
      [
        "St",
        "op"
      ],
      [
        "Ġdepend",
        "able"
      ],
      [
        "c",
        "hes"
      ],
      [
        "Ġc",
        "op"
      ],
      [
        "ar",
        "i"
      ],
      [
        "Ġsa",
        "ved"
      ],
      [
        "ĠL",
        "isa"
      ],
      [
        "un",
        "k"
      ],
      [
        "ĠA",
        "nn"
      ],
      [
        "qu",
        "e"
      ],
      [
        "Ġta",
        "ught"
      ],
      [
        "ĠP",
        "lease"
      ],
      [
        "Ġlea",
        "f"
      ],
      [
        "Ġsmell",
        "y"
      ],
      [
        "Ġpill",
        "ow"
      ],
      [
        "Ġs",
        "il"
      ],
      [
        "Ġwa",
        "ves"
      ],
      [
        "Ġf",
        "ake"
      ],
      [
        "er",
        "p"
      ],
      [
        "Ġo",
        "k"
      ],
      [
        "Ġan",
        "c"
      ],
      [
        "Ġlo",
        "ck"
      ],
      [
        "ĠA",
        "t"
      ],
      [
        "Ġcl",
        "oth"
      ],
      [
        "Ġsc",
        "r"
      ],
      [
        "Ġme",
        "asure"
      ],
      [
        "eci",
        "ally"
      ],
      [
        "Ġmo",
        "d"
      ],
      [
        "Ġmo",
        "on"
      ],
      [
        "Ġbu",
        "ll"
      ],
      [
        "Ġcont",
        "ent"
      ],
      [
        "Ġcra",
        "b"
      ],
      [
        "Ġtun",
        "n"
      ],
      [
        "Ġpuzz",
        "le"
      ],
      [
        "Ġter",
        "ri"
      ],
      [
        "p",
        "ecially"
      ],
      [
        "Ġc",
        "ri"
      ],
      [
        "Ġd",
        "est"
      ],
      [
        "Ġco",
        "vered"
      ],
      [
        "Åĵ",
        "That"
      ],
      [
        "Ġreal",
        "ised"
      ],
      [
        "Ġdr",
        "um"
      ],
      [
        "Ġes",
        "pecially"
      ],
      [
        "Ġanc",
        "ient"
      ],
      [
        "Ġb",
        "one"
      ],
      [
        "Ġl",
        "it"
      ],
      [
        "im",
        "ed"
      ],
      [
        "Ġwe",
        "al"
      ],
      [
        "Ġcl",
        "ap"
      ],
      [
        "ĠW",
        "hy"
      ],
      [
        "Ġwor",
        "king"
      ],
      [
        "if",
        "f"
      ],
      [
        "ĠE",
        "nd"
      ],
      [
        "Ġtow",
        "el"
      ],
      [
        "Ġvegetable",
        "s"
      ],
      [
        "A",
        "my"
      ],
      [
        "r",
        "ated"
      ],
      [
        "Ġt",
        "ent"
      ],
      [
        "Ġs",
        "ight"
      ],
      [
        "ig",
        "er"
      ],
      [
        "Ġlo",
        "g"
      ],
      [
        "Ġgo",
        "at"
      ],
      [
[...]
